[PAD]
[UNK]
[CLS]
[SEP]
[MASK]
the
of
to
and
a
that
in
s
was
for
is
not
court
on
by
as
or
this
be
it
an
with
he
his
at
from
defendant
which
trial
had
we
##s
have
no
evidence
were
are
would
its
any
case
has
plaintiff
her
did
state
been
judgment
if
under
because
there
such
motion
may
other
but
when
law
i
order
she
one
all
time
whether
they
also
their
appellant
district
after
1
only
plaintiffs
claim
jury
action
appeal
against
issue
him
must
these
two
however
could
made
does
upon
will
defendants
before
first
who
fact
should
counsel
filed
property
record
judge
than
so
testimony
2
claims
hearing
do
found
parties
without
decision
mr
new
right
agreement
testified
act
##ing
further
review
attorney
more
into
then
j
where
statute
id
both
part
facts
based
therefore
contract
those
during
out
rule
question
support
between
c
3
summary
about
stated
party
county
same
prior
board
interest
cause
within
while
use
opinion
matter
reasonable
thus
here
complaint
held
you
shall
error
some
t
even
denied
can
de
what
second
our
required
over
them
officer
public
argument
dr
each
p
years
three
states
petition
failed
find
damages
defense
policy
federal
amount
000
alleged
present
notice
although
person
police
cases
work
general
child
said
b
finding
m
rights
conduct
information
government
4
result
circumstances
sentence
statement
following
argues
##ly
granted
petitioner
due
jurisdiction
make
well
basis
e
5
subject
provided
being
cannot
since

used
failure
entered
given
city
d
set
through
application
section
commission
circuit
supreme
appeals
legal
entitled
r
date
discretion
issues
company
criminal
pay
injury
process
authority
presented
period
until
insurance
respondent
business
received
another
sufficient
liability
year
conviction
nor
medical
reasons
department
determination
clear
request
relief
determine
service
either
proceedings
rather
duty
conclusion
own
contends
accordingly
third
purpose
up
courts
united
la
regarding
home
effect
10
guilty
witness
including
provide
car
necessary
##ed
fees
point
day
value
considered
see
report
erred
6
costs
standard
plan
##e
show
employee
now
days
substantial
verdict
findings
tax
paid
told
conclude
statutory
later
intent
final
properly
employment
constitutional
award
terms
clearly
vehicle
7
certain
burden
officers
consider
need
june
position
charge
statements
victim
per
offense
reason
benefits
services
several
death
march
bank
january
children
specific
affirmed
personal
having
july
language
additional
determined
material
involved
payment
might
us
employees
asked
suit
sale
non
never
n
relevant
letter
above
note
four
april
most
october
00
december
l
school
ordered
concluded
pursuant
taken
8
cross
proceeding
back
august
respect
noted
estate
september
term
class
favor
crime
office
appellants
established
establish
specifically
accident
light
employer
dismiss
appropriate
five
place
take
violation
30
mother
11
sought
##n
proof
provision
debtor
test
ms
compensation
care
actions
9
november
15
limited
proper
examination
witnesses
way
particular
justice
abuse
##d
search
judicial
number
different
agency
corporation
provisions
february
condition
common
written
occurred
file
house
individual
issued
provides
degree
plea
##a
claimant
possession
hold
course
area
majority
dismissed
charged
special
bankruptcy
g
original
agreed
left
concerning
re
money
rules
form
good
12
view
##er
count
purposes
negligence
nature
apply
requested
admitted
agree
20
intended
related
months
analysis
power
wife
expert
land
##y
construction
trust
murder
believe
appellate
o
control
administrative
arrest
appellee
account
address
##es
members
addition
##o
loss
give
f
title
grant
separate
consideration
custody
raised
factual
how
otherwise
according
neither
included
applied
unless
caused
el
father
require
actual
full
direct
holding
bar
submitted
charges
filing
inc
again
brief
settlement
knowledge
moreover
co
available
less
just
forth
long
ruling
least
dispute
records
denying
family
amended
v
took
mrs
instruction
denial
income
relationship
13
prove
warrant
questions
committed
breach
prejudice
civil
life
remand
treatment
documents
allegations
proposed
brought
response
system
affidavit
approximately
sentencing
finally
making
coverage
change
my
real
applicable
objection
requires
similar
lack
14
showing
requirement
ground
acts
extent
called
post
contrary
nothing
itself
husband
determining
reasonably
legislature
payments
reversed
opportunity
litigation
fair
motions
next
funds
return
factors
hospital
h
affirm
25
though
benefit
discovery
contention
beyond
contained
requirements
purchase
w
allowed
total
very
owner
answer
simply
grounds
indicated
physical
still
18
prosecutor
follows
exercise
practice
merely
instant
conditions
previously
york
moved
prosecution
leave
know
consent
security
persons
like
instead
six
imposed
me
en
offered
union
clause
16
permit
procedure
seeking
agent
injuries
supra
expenses
manner
health
granting
placed
argue
your
se
go
lease
smith
various
appears
doubt
name
went
directed
true
include
interests
investigation
water
known
17
fee
off
portion
price
arguments
rate
exception
insured
dismissal
people
below
possible
limitations
knew
regard
obtained
claimed
fraud
asserts
cost
actually
doctrine
means
absence
credit
gave
continued
history
local
subsequent
correct
man
signed
supported
protection
future
que
hand
many
merit
returned
building
argued
y
interpretation
served
event
pending
statutes
challenge
counts
thereafter
##t
risk
already
21
decided
say
drug
instructions
22
jj
##r
generally
arbitration
informed
every
convicted
financial
down
article
asserted
explained
offer
himself
status
sexual
trustee
faith
oral
performance
private
merits
able
k
failing
19
receive
sales
appear
standing
allow
##on
23
pre
damage
182
release
program
##man
much
going
obtain
disability
once
ii
line
transfer
behalf
obligation
consistent
assistance
attempted
memorandum
market
indictment
decisions
loan
effective
attorneys
finds
except
termination
independent
probation
best
refused
job
regulations
connection
superior
insufficient
24
level
testify
reverse
discussed
read
indeed
heard
added
mental
met
remaining
robbery
dated
writ
entry
division
described
rendered
outside
directly
force
legislative
enforcement
initial
situation
theory
matters
violated
meaning
taking
awarded
entire
call
saw
done
existence
put
remanded
congress
former
shown
owned
28
get
attempt
month
last
incident
client
why
permitted
significant
constitute
felony
open
timely
committee
liable
earlier
probable
ten
began
harm
recover
scope
principal
times
license
words
hours
stock
sum
identified
member
potential
amendment
waiver
free
27
26
single
unable
q
sustained
underlying
seek
alleges
activity
texas
discussion
injunction
end
laws
think
type
weight
valid
room
authorized
appealed
subsequently
rejected
national
orders
florida
assignment
johnson
factor
delay
improper
procedural
premises
others
chapter
recognized
##i
ability
assets
admission
ex
recovery
reference
discrimination
truck
performed
points
age
suffered
context
automobile
operation
allegedly
assault
immediately
29
emphasis
remedy
preliminary
mortgage
meet
duties
discharge
sentenced
chief
complete
group
patent
observed
driver
aware
became
sold
residence
product
shows
31
relied
conducted
employed
activities
past
gun
false
sent
apartment
50
brown
penalty
immunity
street
conclusions
apparently
high
bill
safety
element
turn
elements
joint
transaction
referred
adequate
community
access
constitution
furthermore
meeting
located
fire
standards
notes
created
alternative
deposition
decree
old
project
ct
likely
road
concur
despite
among
using
williams
2005
white
john
presence
procedures
fails
involving
makes
plain
decide
fully
percent
perform
requiring
stop
inquiry
convictions
applies
side
yet
omitted
face
secretary
capacity
negligent
ordinance
raise
credibility
un
door
together
came
2006
adopted
engaged
2004
advised
whom
insurer
default
workers
results
contend
resulting
sole
debt
labor
california
accused
body
accepted
reviewed
represented
waived
check
parents
2007
pro
fund
decedent
prison
commonwealth
believed
substantially
indicates
approved
expressly
demonstrate
named
enter
definition
stay
express
existing
director
equal
example
serve
object
accordance
minor
exists
substance
primary
doing
deny
injured
seeks
erroneous
presumption
little
acted
lot
cited
come
offenses
jones
herein
stating
misconduct
2008
tort
problems
conspiracy
self
parent
protect
far
driving
prevent
appellees
previous
resulted
lien
relating
comply
cocaine
commissioner
twenty
serious
jurors
responsibility
lower
nevertheless
follow
regulation
center
alone
management
tried
solely
paragraph
2003
equitable
unreasonable
aside
contracts
close
reached
working
deed
2002
store
short
reviewing
equipment
indicate
unit
1983
foregoing
evidentiary
accept
followed
pain
necessarily
too
panel
disposition
considering
whole
document
none
representation
genuine
current
adverse
executed
ever
problem
500
addressed
favorable
policies
copy
assert
privilege
allege
avoid
2001
grand
reach
anything
code
resolution
gas
mere
approval
son
del
items
alleging
qualified
near
imprisonment
removal
juror
around
half
continue
feet
contact
clerk
100
2009
association
defined
1984
front
become
james
al
assigned
blood
2000
guilt
purchased
cash
1995
1994
north
arising
1981
1982
important
1986
whose
similarly
barred
assessment
collateral
st
conflict
black
longer
1985
1993
permanent
development
petitioners
responsible
official
1989
taxes
arrested
divorce
covered
objections
essential
1991
instructed
proceed
1996
limit
additionally
appeared
principles
1990
providing
iii
firm
products
president
1992
1980
thereof
removed
events
proceeds
applying
acting
materials
fourth
illegal
exhibit
suppress
don
reports
maintain
1988
telephone
disclosure
identification
1987
bad
capital
background
temporary
guidelines
absent
pleadings
crimes
impact
reported
agreements
apparent
motor
appointed
giving
inconsistent
parole
away
##en
great
seven
social
allowing
representative
concern
undisputed
##al
drugs
balance
satisfied
closing
refusal
demand
large
bond
submit
violations
affirmative
run
1997
improperly
dismissing
obligations
discovered
con
contractor
terminated
existed
men
juvenile
greater
magistrate
ineffective
compliance
protected
individuals
method
lost
completed
1979
ultimately
stand
facility
inter
experience
abused
thomas
possibility
million
scheme
marriage
corporate
commercial
transcript
thereby
constituted
challenges
fall
professional
illinois
1998
prepared
bring
1999
moving
pertinent
consequently
education
farm
head
maintenance
remain
2010
deemed
hereby
1978
incurred
west
minimum
responded
election
site
expressed
initially
physician
create
admissible
week
numerous
showed
los
character
along
eight
receiving
range
art
ruled
u
supports
assertion
share
operating
pennsylvania
inference
worked
unlawful
traffic
data
needed
lawsuit
administration
introduced
wanted
concerned
miller
correctly
construed
south
patient
enough
punishment
particularly
certificate
distribution
habeas
jr
contains
##l
attached
challenged
voluntary
sell
requests
produced
ordinary
delivered
1977
robert
treated
alj
increase
commerce
validity
early
sentences
list
owed
want
implied
approach
small
produce
davis
amend
1976
location
substantive
internal
exist
ownership
lawyer
scene
production
partnership
manager
marijuana
amounts
agents
minutes
economic
strike
efforts
detective
function
broad
limits
limitation
thirty
excess
prejudicial
affected
novo
##in
owners
trade
mean
err
contempt
reliance
1974
1975
debtors
station
offender
partial
punitive
exclusion
commenced
vacate
seen
air
controlled
things
listed
adequately
concerns
examined
2011
impose
allegation
weapon
officials
few
effort
got
mind
toward
40
exclusive
source
night
constitutes
sufficiently
something
exchange
look
causes
town
represent
council
writing
transferred
declaratory
certified
alcohol
designed
late
creditors
competent
##co
changed
deputy
prima
certainly
##ers
arrived
dangerous
1973
themselves
examine
louisiana
sign
personnel
commit
multiple
doctor
supporting
assume
respondents
jail
declaration
living
disputed
legally
hearsay
rely
contractual
word
explanation
satisfy
wrongful
highway
voluntarily
staff
facie
green
continuing
subdivision
pa
modified
intention
sense
reading
remained
kind
includes
regardless
por
render
fault
maximum
customers
resolved
reject
rent
difference
affidavits
wrong
excluded
role
oil
burglary
legitimate
evaluation
aggravated
weeks
enforce
instance
choice
execution
option
lee
thought
reduced
settled
operations
##c
latter
behavior
setting
app
suggested
zoning
affect
estoppel
gross
creditor
stipulation
move
field
contentions
objected
description
principle
mail
justify
plans
net
complaints
misrepresentati
stopped
bound
##ley
acknowledged
recommended
suggests
natural
reasoning
suspension
1972
recommendation
suggest
floor
disciplinary
explain
hour
am
dissent
emergency
arguing
pretrial
assuming
marital
increased
van
companies
rates
jackson
applicant
res
step
assistant
resolve
lead
retirement
tell
often
young
attention
60
page
shortly
park
2012
ohio
shares
supplemental
specified
forum
excessive
equity
conversation
certification
difficult
identify
contain
remedies
intentional
sufficiency
entirely
accounts
retained
establishing
compel
bargaining
ask
base
changes
emotional
reversal
errors
opposition
shot
overruled
respond
danger
governmental
fraudulent
sic
opinions
secured
throughout
extended
modification
fiduciary
sued
areas
carrier
maintained
belief
authorities
michael
judges
passed
proposition
facilities
understanding
concluding
receipt
exceptions
comment
mark
refusing
precedent
notwithstanding
fail
armed
viewed
understand
william
corpus
mandatory
executive
remains
powers
1971
rise
demonstrated
understood
training
disclose
interview
asserting
daughter
drawn
unfair
immediate
help
recognize
influence
design
sex
exemption
transactions
subsection
master
attack
assessed
ease
practices
1970
acquired
involves
counterclaim
essentially
discuss
behind
morning
aid
##son
##able
better
fifth
expense
pleading
needs
almost
lesser
sheriff
central
void
basic
monthly
schedule
comments
delivery
tr
released
entity
military
inferences
theft
plus
appointment
david
sanctions
unnecessary
properties
obvious
likewise
withdraw
fundamental
designated
ill
##le
##os
indicating
nine
expected
objective
##z
martin
double
concludes
recorded
someone
lacked
discharged
ultimate
goods
binding
therein
adoption
vacated
plant
consequences
prospective
anyone
keep
arbitrary
deal
foreign
dealing
formal
phase
inside
distinction
suspended
parking
seems
always
justified
human
answered
harmless
identical
vehicles
occasions
##or
defend
major
docket
testing
foreclosure
strong
1969
turned
confession
stipulated
taxpayer
mentioned
reconsideration
university
developed
operated
containing
reveals
political
proved
remove
primarily
pointed
prejudiced
claiming
issuance
bia
parts
scheduled
fell
length
defect
permission
reflect
assumed
tests
stolen
whatever
letters
judgments
obtaining
associated
##m
normal
sustain
proving
municipal
##g
visitation
controversy
rape
sub
worker
terminate
exhibits
wilson
exercised
involve
phone
disclosed
knowingly
investment
housing
transportation
##unconstitutional
hereinafter
unlike
raises
didn
##an
direction
struck
##k
citation
indication
revenue
hall
governing
revealed
cover
missouri
arose
violate
hill
notified
deciding
originally
tenant
extension
##ness
resources
checks
shooting
jersey
reply
severe
identity
seized
supervisor
sound
iv
taylor
portions
administrator
ed
participate
felt
led
securities
regular
appearance
irrelevant
mutual
reduction
let
participation
reflects
2013
personally
mistrial
leaving
breached
hearings
occur
defective
##te
obviously
directors
conference
proceeded
##is
higher
secure
drive
##f
low
truth
moore
malpractice
instrument
disagree
customer
briefs
quality
entering
questioning
violence
invalid
refer
recent
1968
preclude
brother
establishes
victims
vote
attempting
informant
hear
wrote
maintains
nonetheless
x
pension
permits
confidential
died
harris
drove
rehearing
adopt
beginning
las
35
surrounding
causing
movant
marks
##sofar
parental
declined
adjudication
simple
pleas
disregard
deceased
probative
pleaded
lived
especially
awarding
moot
seller
45
completely
venue
prohibited
alia
structure
firearm
imposition
enacted
warranty
spouse
modify
stage
legislation
questioned
extreme
bodily
detailed
spent
georgia
anderson
sections
considerations
washington
equally
pursue
supervision
contrast
industry
outcome
suspect
extensive
miranda
eligible
surgery
operate
##p
carry
##re
main
respective
charles
ij
prescribed
inspection
carolina
version
students
inadequate
paul
learned
rational
decline
##h
90
privacy
trier
indiana
revocation
controlling
##ity
doc
disputes
today
exclude
forward
accounting
##ar
forced
opposed
lo
race
hands
200
restitution
fine
jurisdictional
repair
necessity
declared
international
1967
bell
passenger
alimony
interstate
su
relative
preponderance
deposit
##ton
forms
threat
continuance
effectively
richard
contended
dissenting
country
extend
phrase
bag
photographs
interpreted
supplied
defenses
referee
instances
dollars
kill
arise
1965
conceded
75
strict
seizure
disabled
imposing
says
advance
mistake
complained
thompson
clark
mandate
east
167
liberty
communications
arbitrator
effects
church
citizens
injunctive
scott
permitting
computer
1966
clients
rest
profit
student
##da
rental
red
average
critical
hence
names
card
friend
ad
pass
mitigating
river
arises
measure
##us
requesting
negotiations
maryland
resident
experts
hired
para
papers
beneficiary
wages
advice
fixed
es
paying
restrictions
disease
annual
acceptance
presents
bear
calls
criteria
key
threatened
michigan
##ner
foster
steps
arm
reduce
ran
selection
##el
significantly
king
safe
perhaps
battery
citations
engage
agencies
positions
ensure
item
welfare
confirmed
closed
residential
likelihood
salary
0
collective
answers
vii
hard
reimbursement
ford
payable
##as
grievance
complainant
lines
precluded
live
discretionary
classification
worth
attempts
yes
afforded
interference
assembly
purchaser
relies
mandamus
becomes
loans
contest
eventually
reasonableness
reversible
probably
petitions
lane
consolidated
occasion
credible
registration
recently
speech
admitting
lewis
bureau
32
constructive
repeatedly
alabama
device
incorporated
##ta
rulings
fired
planning
##ie
##ia
opening
asking
probate
applications
assist
distinct
suppression
knowing
easement
absolute
deprived
joseph
allen
discriminatory
organization
domestic
consumer
requisite
##b
lawful
fairly
ambiguous
warning
sue
situations
preserve
proposal
else
convincing
determinations
##to
intentionally
forfeiture
george
quite
happened
cal
supply
contacted
compelling
mention
environmental
commitment
industrial
selling
losses
jeopardy
uses
impairment
begin
sec
separation
thing
trustees
inform
buyer
##x
miles
food
branch
representatives
certiorari
explicitly
upheld
reasoned
plead
cut
tribunal
railroad
environment
utility
circumstance
sanction
possessed
wage
collection
kept
carried
registered
separately
thereto
files
foundation
contribution
sister
opposing
fear
chose
1964
le
substitute
running
wholly
##ic
san
profits
involvement
una
detention
manifest
bills
focus
fifteen
performing
approached
study
alter
2014
detail
falls
started
aggravating
blue
communication
warranted
machine
penalties
seat
lake
calculated
inmate
obligated
exempt
rationale
assignments
demonstrates
across
residents
bid
##ra
examiner
difficulty
abandoned
admit
evening
ordinarily
highly
paper
##ch
wide
hit
infringement
virginia
relations
units
copies
##ons
suspicion
wood
rico
ve
active
religious
serving
acres
carrying
proximate
uniform
killed
conflicting
contents
mary
probability
assumption
mar
dissolution
concurring
desire
mississippi
purported
travel
discipline
joined
holds
twelve
retain
judicata
guardian
inappropriate
entities
irs
technical
bench
chancellor
motive
representing
amendments
harassment
promise
schools
advanced
refers
foot
herself
adult
kansas
bus
##u
distress
presumed
speed
walker
box
80
content
relation
et
operator
programs
southern
regulatory
married
placement
admissibility
suffering
currently
institution
collision
complied
wl
reaching
category
recall
trailer
citizen
woman
36
causation
bears
capable
licensed
landlord
recovered
charging
occurrence
refund
percentage
negative
opened
submission
adjustment
impossible
inadmissible
33
protective
honor
gives
preparation
justification
college
series
sitting
tape
sure
waive
figure
columbia
300
references
partner
manufacturer
hundred
cell
looking
practical
waste
takes
looked
confusion
1963
prevented
published
lacks
involuntary
concedes
pattern
feel
parish
prepare
contemplated
club
relying
patients
indemnity
departure
##ma
successful
repeated
representations
treating
prohibition
##se
types
permissible
knife
women
bearing
completion
##st
exposure
task
investigate
allows
afford
twice
cook
add
manslaughter
proven
##ey
robinson
complex
##ion
research
tract
dire
soon
parcel
rear
earnings
dependent
challenging
saying
heart
##land
selected
immigration
motorist
publication
auto
conversion
42
unanimously
reflected
pled
participated
unusual
erroneously
cites
believes
trying
noting
consequence
equivalent
functions
retaliation
confinement
##na
##rs
buy
##lin
remainder
signature
township
38
elected
escape
vi
ray
treat
quoted
initiated
agrees
circumstantial
inability
society
arrangement
inherent
speak
collect
competition
importance
usually
text
fit
top
directing
citing
interested
presently
respects
wells
exceed
systems
prevailing
draw
acquittal
unrelated
visit
concept
voir
rehabilitation
positive
raising
noticed
details
automatic
spoke
articles
wright
limiting
inmates
prisoner
forty
promissory
lands
space
western
vested
wall
instruct
furnished
significance
physicians
omission
introduce
window
relate
male
determines
bed
typical
corporations
deference
governed
doe
suffer
lots
experienced
employers
colorado
carefully
financing
shareholders
sovereign
partners
ordering
quotation
narcotics
innocence
covenant
prevail
subpoena
distinguishable
narrow
infer
suggestion
conducting
willing
##ro
try
##ation
traditional
formed
addressing
refuse
##pa
persuasive
educational
deficiency
bedroom
eligibility
individually
offers
parte
expired
sergeant
minnesota
untimely
bias
somewhat
restaurant
tennessee
avenue
interrogatories
premium
debts
talk
introduction
suits
intend
tend
depositions
incidents
coming
epa
teacher
##do
totally
uninsured
size
namely
senior
37
pure
massachusetts
adams
meant
thereon
pulled
careful
sources
savings
34
ch
leading
ward
merchandise
sets
##et
inventory
improvements
wherein
##ler
qualify
70
precise
incorrect
affairs
outstanding
virtue
neglect
claimants
entitlement
bonds
vice
valuation
violent
advantage
malice
denies
speedy
prices
counter
##ter
interrogation
attributable
misdemeanor
theories
preserved
electric
delaware
arizona
fifty
proffered
seem
##ian
diligence
pertaining
banks
gain
violates
storage
entirety
grants
membership
advertising
anti
announced
relates
homes
contested
exceeded
leg
authorization
sixth
calculation
essence
specify
eeoc
remarks
hotel
fairness
press
relator
examining
compelled
book
##ment
urges
dates
unpaid
places
charter
lay
fed
accurate
really
onto
reconsider
deliberate
possibly
admissions
walked
methods
prong
testifying
investigator
killing
faced
overall
join
sometimes
guard
assess
connected
supervised
llc
baker
success
vessel
village
frank
broker
##responsibilities
potentially
views
observe
dispositive
periods
erisa
jurisdictions
howard
reliable
steel
enactment
earned
merger
##ling
willful
warnings
characterized
bringing
undue
deprive
priority
easily
block
considerable
56
ascertain
defects
develop
birth
ha
accrued
courtroom
##ir
occurs
capricious
returns
racial
##ville
numbers
intoxicated
holder
##ry
##ne
video
evaluate
radio
chicago
daily
##ca
ended
consist
complains
250
normally
mitchell
revised
interim
meetings
threshold
intersection
population
doctors
surface
beneficiaries
trooper
tenants
governor
presentation
silent
prescription
contributions
attend
disorder
consistently
mexico
bail
readily
guarantee
notify
remember
lawyers
friends
missing
chemical
unjust
estimated
##ke
awards
rose
placing
subjected
situated
sullivan
150
douglas
associates
authorize
##um
distribute
totality
##la
bargain
stat
reveal
neck
lessee
expiration
rejection
searched
withholding
symptoms
reserved
route
contacts
accompanied
sworn
mobile
improvement
depends
jobs
comes
medication
superintendent
retail
start
conveyed
##ce
goes
shop
cap
alternatively
ninth
creates
pages
propriety
##wood
register
derived
female
signs
physically
appraisal
interlocutory
plainly
corp
leased
sixty
guidance
deliver
supp
construe
accord
homicide
incarceration
enforceable
recording
stayed
psychiatric
ll
affirming
story
distance
persuaded
expectation
65
interpret
preceding
carter
unique
aspects
deficient
combined
55
driven
jointly
differences
aspect
ample
exact
frequently
municipality
corrections
restriction
##ba
reads
reckless
ny
progress
unambiguous
frivolous
flow
reinstatement
contending
misleading
maintaining
innocent
commissioners
excluding
oklahoma
asset
unauthorized
conversations
monetary
z
demanded
team
indian
retroactive
reputation
summons
addresses
dealer
born
demonstrating
contributed
convinced
weigh
1962
peremptory
reporting
##ard
enterprise
ross
districts
intervene
excuse
psychological
400
indicted
adduced
collectively
confirmation
concurrent
lie
illness
##ts
ready
presumably
anticipated
settle
extraordinary
damaged
ways
parked
morgan
replied
divided
severance
repairs
inapplicable
roberts
##ant
compensatory
reliability
combination
advise
chance
telling
play
goal
urged
assertions
comparable
prohibit
occurring
usual
39
acquisition
newly
measures
dis
tex
pl
buildings
sexually
accepting
withdrawal
##it
mailed
creating
ma
ar
privileges
unknown
manual
precisely
strictly
turner
variance
comprehensive
ors
dna
subjective
negotiated
commencement
shift
diagnosis
rebut
pool
promptly
collected
restricted
committing
violating
ongoing
grade
therefrom
consecutive
explicit
41
dog
finance
pressure
represents
choose
describe
island
curiam
rests
cars
freedom
senate
directions
chain
define
world
asylum
allowance
clothing
##th
reopen
ambiguity
scientific
48
recommendations
risks
impression
exclusively
instituted
phillips
rock
parker
offering
certainty
enhancement
successfully
fashion
cumulative
2015
kelly
antitrust
advisory
accompany
formula
morris
ing
iowa
familiar
possess
passing
va
exactly
demands
mid
prosecuting
oregon
mass
intervention
congressional
##me
approve
closely
nelson
heavy
minority
manufacturing
enable
specifications
poor
cast
port
adversary
table
explaining
virtually
##ee
44
consisted
overcome
nurse
etc
sort
leases
rebuttal
escrow
replacement
shoulder
warrants
unclear
threats
renewal
unemployment
##field
satisfaction
bridge
photograph
receiver
arkansas
evans
meaningful
admits
household
television
campbell
garcia
responses
idea
##8
eastern
convenience
contracting
levels
gen
books
passage
referring
independently
distributed
wearing
warn
regional
conditional
continues
planned
automatically
documentation
weapons
heroin
crack
concrete
confrontation
provider
neutral
fuel
mitigation
break
promote
vague
affirmatively
availability
sheet
causal
funding
relatively
eye
remedial
8220
administered
whenever
distinguish
patrol
send
murphy
venture
contractors
walking
louis
couple
survey
respectively
cite
quantity
stewart
sample
gone
model
emphasized
eliminate
utilized
viewing
##w
recognition
rodriguez
issuing
reserve
exercising
##ri
gray
cooper
##ci
classified
restraining
getting
deposited
flight
summer
pocket
##ability
franchise
color
rejecting
duration
whereas
apart
coal
voting
liabilities
restrictive
attended
nursing
bay
handling
##ized
chosen
opined
middle
##ge
120
consented
surety
observation
via
investors
##ek
garage
henry
teachers
1961
taxable
engineer
inferred
guaranty
conflicts
liquor
northern
contingent
footnote
pistol
br
draft
##izing
43
discussing
withheld
processing
options
oath
competitive
assessing
par
kentucky
minimal
47
largely
revoked
mo
dealt
deadly
pick
distinguished
conveyance
sea
objects
##il
##v
##ado
walk
##de
establishment
surveillance
unreasonably
broken
600
workmen
estimate
shareholder
daniel
materially
deadline
secondary
talking
striking
works
##ney
condemnation
star
seriously
##di
op
energy
quash
clean
evident
signing
classes
##si
edwards
hire
methamphetamine
recognizes
##ti
habitual
employ
wish
miss
qualifications
interviewed
mandated
##ham
marked
puerto
ap
expect
95
51
applicants
##ization
##age
lying
adjacent
custodial
war
fatal
promotion
liens
audit
fiscal
preference
cure
tender
hiring
dollar
permanently
transfers
enforced
46
##ha
##io
mayor
allocation
forest
52
kidnapping
85
cat
notices
finder
interpreting
rel
custom
furnish
boat
package
differently
towards
applicability
news
offices
continuous
malicious
reservation
premiums
competency
regularly
destroyed
absolutely
evaluating
exposed
deliberations
diversity
protest
defeat
fbi
whereby
brothers
metal
candidate
investigating
impaired
tendered
associate
reorganization
integrity
def
difficulties
marketing
jefferson
authorizing
##id
visited
##well
skill
rendering
calling
pipe
insurers
tested
cancellation
glass
covering
concurred
appoint
component
defines
categories
occupied
tire
tortious
com
martinez
donald
deprivation
##am
variety
comparison
suggesting
customs
write
compared
fence
desired
##sa
penal
wire
convention
identifying
producing
constructed
earning
square
##den
valley
taxpayers
stress
seventh
connecticut
precludes
highest
whatsoever
##no
prohibits
sides
serves
affecting
manufactured
hair
concurs
duly
stone
zone
contraband
confronted
devices
expression
##mer
confined
dwelling
impartial
tribe
interfere
participants
foreseeable
listing
dep
focused
01
minn
pet
army
##ford
supervisory
scrutiny
discloses
designation
si
convict
strategy
##li
##ier
lawrence
achieve
verdicts
partially
piece
projects
clauses
subsidiary
pp
predicate
complain
drivers
acquire
camera
values
ante
##men
supervisors
edward
roof
assessments
renewed
montgomery
ga
pacific
consumers
asbestos
posed
adversely
returning
shared
##ell
trespass
##ni
ley
prohibiting
diagnosed
chase
declare
acceptable
irreparable
marshall
core
terminating
groups
disturbed
talked
prosecute
incarcerated
presenting
engaging
unsupported
lsa
arguably
calendar
lies
english
media
unsecured
outset
restrict
intoxication
electrical
construing
execute
beach
peace
expertise
successor
extra
figures
delayed
purchasers
overrule
49
conclusive
participating
bases
overruling
counties
mentally
respectfully
increasing
##ka
characteristics
hardship
pounds
consists
dean
receives
spring
correction
##ko
61
retired
speculative
built
adjudged
crew
weekly
cpl
withdrawn
observations
newspaper
gift
jack
overwhelming
sheriffs
trip
indemnification
drinking
definite
copyright
inclusion
picture
reinstated
budget
bars
8221
montana
user
pursued
manufacture
eleven
unaware
offset
controls
speculation
keeping
lender
acre
persecution
studies
boy
carriers
unduly
fill
therapy
##ig
discussions
relevance
increases
speaking
thousand
##be
realty
induced
holdings
purchasing
promised
founded
creek
enumerated
firearms
##ted
mart
secret
tri
trigger
nuisance
resort
collins
turning
dead
train
strongly
acknowledge
voters
asks
picked
sometime
deduction
sums
installed
correctional
##ty
como
specification
##less
substances
allstate
attachment
accomplice
altered
alternate
franklin
contracted
du
accuracy
predicated
plastic
restraint
complaining
airport
opposite
testator
abandonment
terry
ballot
competing
big
unlikely
protecting
acknowledges
taxation
negligently
##ally
accorded
indebtedness
breath
ann
everything
disposed
preferred
ro
confirm
inasmuch
##ino
54
laid
gang
russell
sun
briefly
creation
generated
minute
sua
1960
accomplished
invoke
limine
indemnify
verified
lengthy
certificates
##der
cf
defender
wal
dec
installation
electronic
paternity
philadelphia
motivated
paragraphs
##ns
incidental
reed
prejudgment
800
aircraft
vacation
hostile
operates
yard
marine
impermissible
knee
dakota
track
transport
endorsement
adjudicated
traveling
articulated
contributory
played
ship
engineering
sustaining
rogers
##ies
continental
exhaust
##ada
insure
gary
presiding
##kin
59
##fa
motel
arrangements
describing
sponte
multi
resentencing
conclusively
session
appendix
##ting
appropriately
houston
accurately
larger
excused
stands
deficiencies
baby
candidates
##ga
62
suppressed
contemporaneous
ninety
rep
afternoon
lopez
bought
lessor
##ett
wished
litigated
##mo
omissions
moment
suitable
boundary
pursuing
compensable
bottom
useful
sit
separated
##ine
volume
invention
waters
invoked
lineup
bona
lists
ordinances
leaves
incompetent
intercourse
72
corroborated
origin
regarded
##ary
psychiatrist
conform
chairman
evaluated
balancing
medicaid
trademark
justices
logical
lose
filled
briefing
impeachment
commissions
evidenced
premise
renders
cab
amounted
regulate
moral
02
##ak
compromise
enjoin
removing
da
8212
78
importantly
leads
appealable
ignored
57
preparing
cr
unsuccessful
shotgun
patents
elsewhere
concealed
cable
sir
turns
relationships
hypothetical
gold
supplement
crucial
unlawfully
##ous
sand
hazardous
lacking
##ger
tribal
solicitation
homestead
handle
withdrew
beneficial
subcontractor
counterclaims
neighbor
ago
disbursements
kitchen
therefor
goals
nation
guaranteed
privileged
chambers
purchases
bailey
##tz
heirs
mcl
eighteen
cards
banc
adopting
imposes
alexander
99
bo
immaterial
honorable
businesses
replaced
este
game
inquire
warren
anthony
53
brain
counseling
##cion
deem
appearing
reduc
aggregate
larceny
84
utilities
tree
fort
overtime
resolving
eighth
hope
licensee
##em
memory
realized
recognizing
notification
##one
perry
##pe
declarations
delinquent
##con
govern
searches
analogous
suspected
factually
girlfriend
attendance
reporter
brooks
defamation
lights
coleman
functional
pat
alternatives
unavailable
sewer
declaring
fide
submitting
deferred
manifestly
captain
strip
powell
link
discover
##way
##j
build
convey
enforcing
gonzalez
alibi
providers
gordon
prosecutorial
05
wait
assign
weighing
commonly
waiting
laboratory
68
fight
ignore
corrected
clinic
dispose
preventing
measured
alaska
cooperate
threatening
58
helpful
er
chest
silence
intervening
guide
##lo
levy
message
confidence
expenditures
monies
woods
retention
attending
undermine
##up
##ac
derivative
renew
deeds
beer
##va
ada
##les
chancery
exculpatory
grandmother
routine
##berg
grams
licensing
driveway
neighborhood
framework
assure
ice
visits
concurrently
implication
outlined
li
wisconsin
estopped
movement
insanity
knows
attributed
promulgated
um
avoided
rating
learning
mc
girl
participant
defer
pri
preemption
63
love
revenues
hamilton
dennis
transported
presumptive
convicting
heavily
die
orally
##so
##ist
frame
67
responsive
medicine
premised
schedules
stores
inherently
compensate
infliction
hardly
barnes
pen
satisfactory
mill
fourteen
subrogation
unpublished
seeing
roadway
prisoners
##est
upper
##ron
assured
hernandez
advances
email
defining
conferred
##by
facto
nearby
conjunction
revoke
depend
cent
organized
valued
deliberately
ltd
weighed
mcdonald
mis
institutions
cox
watson
receipts
implement
larry
signal
locate
considers
opportunities
expended
92
interior
##at
71
trouble
tom
66
elect
alien
prompt
split
##line
reviews
88
lawfully
inches
enhanced
hourly
clinical
undertaken
colloquy
reversing
statutorily
ball
hud
organizations
correspondence
litigants
1959
commence
confer
economy
voted
sr
##ah
shopping
implementation
##disqualification
professor
exhausted
nebraska
meets
jordan
rivera
##bo
skills
##sen
illegally
older
gulf
richardson
furtherance
wayne
64
##ex
surviving
uphold
coupled
investigative
eliminated
##ad
changing
defraud
thorough
##ated
assigns
retrial
promises
summarized
viable
81
manufacturers
hartford
definitions
na
litigant
kennedy
prosecuted
lieu
clarify
brings
hazard
adding
differ
liquidated
comparative
hart
exhaustion
wishes
protections
prudent
kenneth
clothes
transmission
royalty
save
guideline
petitioned
harrison
impeach
corps
implicit
hughes
tractor
fellow
##hr
depending
communicate
sellers
condominium
boundaries
encourage
91
96
tion
credited
voice
butler
arranged
broader
##per
180
##ps
destruction
operative
coast
ge
presume
fisher
liquidation
94
perceived
dropped
##im
mining
reinstate
academic
disturb
credits
83
freely
forensic
import
samples
calculating
austin
##ina
recited
moves
conclusory
psychologist
indirectly
lab
penn
brady
converted
tank
97
shifts
warehouse
pendency
griffin
stood
keys
monitoring
hurt
hunt
74
travelers
indirect
extrinsic
demurrer
di
ceased
93
aggrieved
responding
describes
##ich
nationwide
strength
quarter
cooperation
resided
deck
injustice
mineral
guns
##ber
enrichment
disregarded
##acion
landowner
judiciary
analyzed
lump
streets
retroactively
86
abstract
jan
parcels
affects
pickup
fish
jurisprudence
esta
sanders
cease
sat
wound
##ny
replace
orleans
super
scale
reform
incriminating
supposed
mine
shield
au
authorizes
concede
crossing
accommodation
lives
efficient
posted
snow
religion
contribute
territory
rested
eyes
fitness
components
minds
##fi
substituted
boys
disagreement
postconviction
82
approving
##mann
cargo
77
dan
dealers
attach
mailing
98
executor
depression
disposal
drafted
objectively
construct
implicitly
admittedly
historical
shell
warrantless
confidentiality
dallas
entries
attacked
encounter
87
indigent
ring
cattle
##go
investments
printed
documentary
fda
belonging
governs
summarily
shirt
determinative
fdic
owns
henderson
foreclose
ab
supplies
rescission
extending
##onstitutionality
accomplish
tip
roy
perez
trafficking
cole
billing
occupation
concealment
actively
sharp
unenforceable
03
adequacy
##ive
outweighed
methodology
medicare
campaign
patterson
bathroom
assisted
col
ca
accidental
04
wrongfully
fox
fe
125
ear
invasion
implicated
mills
youth
tariff
imminent
outweigh
valuable
timber
veterans
reynolds
ho
remote
joinder
##wa
presentence
attacks
investigated
stevens
securing
command
instruments
dissents
informing
linda
hereafter
handled
verbal
mistaken
plate
##ez
mac
##mi
technology
career
vocational
cohen
incorrectly
##mente
detectives
purportedly
negate
tools
##ur
hospitals
##eh
##ol
quickly
gasoline
cancer
informal
##ance
ban
offenders
select
perjury
domain
##mar
initiative
elicited
incentive
trunk
76
89
ka
##vi
tenure
##ish
assurance
##pp
begins
invited
machines
79
drawing
display
fla
seal
prerequisite
detained
formally
arriving
occupational
corner
occupancy
survive
warned
##led
passengers
investigations
recalled
disparate
flat
mechanism
73
ronald
nevada
##ano
constituting
alcoholic
quoting
enjoined
ryan
discount
occupants
facilitate
premature
inquired
examples
idaho
recommend
tortfeasor
pretext
tolling
aetna
farmers
##ik
hot
sidewalk
institute
preempted
consult
compete
map
tucker
suspend
metropolitan
willfully
attendant
referenced
graham
myers
bennett
covenants
mouth
cl
ni
reality
invoices
pointing
bags
shaw
750
plausible
uncertainty
##ap
urge
lynch
upset
700
ought
inspect
crawford
surrender
jenkins
69
relieve
vital
logic
meritorious
peterson
locked
rob
steven
locations
##bi
widow
negotiate
engine
##stein
mas
influenced
disc
deductions
inspector
arms
105
elections
##ker
deceptive
106
objectives
sick
wallace
simmons
##ms
starting
crane
der
extends
caution
incomplete
calculations
##ize
suffice
##ent
##off
delays
belonged
##han
loaded
##don
watch
ranch
putting
stricken
certify
clarification
predecessor
wit
revision
grabbed
drew
please
signatures
guess
severity
resignation
ratio
proximity
improve
adjusted
stanley
camp
disagreed
machinery
cities
101
heat
har
recipient
plat
pipeline
susceptible
trusts
104
teaching
detriment
compensated
##sky
actionable
peter
undercover
reimburse
lawsuits
satisfies
immune
##sc
younger
perfected
hudson
leasing
des
narrowly
usage
110
convince
ser
quo
arbitrate
arthur
ticket
bottle
ger
users
lu
burns
mandates
ter
videotape
contradicted
coercion
sam
solid
sixteen
responds
dual
transcripts
ko
diminished
profession
handgun
exceeding
barbara
8226
forwarded
postal
joe
licenses
mile
infant
timing
growth
assumes
industries
cognizable
apportionment
mot
ends
exceeds
entertain
expectations
vis
discern
##dy
corresponding
inflicted
##eo
buyers
stockholders
prime
simultaneously
preclusion
triable
shoes
analyze
##nt
porter
improved
silver
lincoln
terminal
explains
hayes
pull
broadly
boston
perpetrator
tenth
hen
slightly
uncertain
trans
##ini
agricultural
dot
tangible
handed
undertake
lift
redemption
girls
structures
label
affirmance
walter
effectuate
acquitted
target
biological
brand
fcc
##ate
lock
shots
dictionary
murray
belt
fields
periodic
holmes
##po
advising
den
trading
##ten
dkt
indifference
consulting
communicated
harmful
circuits
felon
prevents
navy
pollution
broke
mortgagee
recollection
ecf
##pi
intends
##ng
##q
checked
network
##ana
tasks
ver
hunter
purse
roll
basically
albeit
inquiries
edge
cooperative
begun
casualty
##nmoving
surely
##constitutionally
webster
thirteen
06
##ola
102
boyd
believing
quantum
clock
achieved
load
sa
interviews
falsely
arraignment
sus
litigate
pierce
exceptional
sites
monitor
tool
film
bore
peculiar
conscious
gibson
perceive
defending
bit
shoot
memoranda
laches
charitable
pursuit
fled
exemptions
wounds
##ial
pictures
pine
kan
trucks
nos
##he
tending
mixed
adjustments
trauma
##au
##rick
garnishment
wrongdoing
votes
fix
strickland
ignores
##ert
managing
1958
##ut
seniority
wheel
slip
borrower
lieutenant
fast
rice
path
severely
entitle
litem
arrival
suffers
sudden
photo
aff
answering
allocated
mechanical
proposals
temporarily
foreclosed
##if
forfeited
doors
reaction
province
slight
features
score
suicide
reside
memo
pants
jacket
nexus
ta
pilot
processes
sons
##characterization
implies
##ating
maine
horse
instructing
##hi
caso
chair
weather
maritime
hat
repayment
owing
##su
custodian
yield
actor
evaluations
seemed
md
borough
##gen
krs
dark
monday
patricia
misled
ellis
owens
bi
finality
landowners
probationary
stephen
penitentiary
soil
insisted
regulated
managers
08
somehow
helped
characterize
arrive
##que
boards
appel
perfect
##ido
suggestive
notion
waited
filings
inconsistencies
flood
installment
examinations
freight
republic
fraudulently
monroe
foreman
developing
entrance
sanchez
drainage
freeman
refrain
disqualified
software
chronic
plants
ry
mountain
imply
christopher
##ul
drilling
isolated
checking
proximately
murders
trials
wasn
bryant
harbor
commencing
##ida
impair
bind
polygraph
mortgages
kings
functioning
subjects
exit
accountant
eleventh
angeles
covers
quasi
quiet
##ster
tied
minors
urban
defamatory
roads
infra
declarant
gender
mat
accidents
parenting
furniture
holders
surgeon
treasury
restatement
focuses
voluntariness
##pc
07
faa
decisional
houses
shelter
bullet
retaliatory
contradictory
dam
developer
elizabeth
residual
correctness
executing
sharing
partition
implemented
jerry
##ette
directive
accommodate
expansion
continuation
syndrome
wcj
103
im
judicially
09
stake
ferc
remark
interrogatory
enterprises
exclusionary
apa
unwarranted
friday
noise
breaking
divorced
fi
compare
peters
recoverable
mason
robertson
gate
confused
rented
internet
unanimous
possessing
downward
##af
tapes
runs
drop
##mp
torres
quit
##fo
auction
ham
gar
carl
bruce
pcra
intelligence
gal
payroll
##ski
felonies
motivation
##oc
surgical
log
preservation
gregory
putative
supervise
##mb
specialist
insureds
misplaced
nowhere
diaz
dunn
rents
faculty
investigators
incumbent
raymond
riding
bankrupt
neglected
hole
autopsy
uncontroverted
undoubtedly
mil
families
##za
successive
defaulted
contra
rail
bor
apartments
publicly
susan
indictments
dispense
dry
judice
appraiser
fines
##the
carr
doubts
berry
impermissibly
lin
paint
transferring
arbitrators
interpretations
liberally
incapable
mem
connor
customary
baltimore
deposits
vendor
happen
inaccurate
encountered
notably
formerly
vol
trees
##op
operators
supplier
thereupon
sin
solution
fulfill
stream
##ow
substitution
visible
assailant
arson
##ica
recreational
channel
pregnancy
briefed
approaching
consulted
jane
orange
##sh
sleep
incorporation
##mon
bradley
##ot
curtis
harmed
becoming
annexation
grace
forma
##tor
annuity
##ve
harvey
##om
deportation
specially
reiterated
patrick
cba
sending
succeed
utilize
fred
settling
deter
ahead
##ens
managed
ride
manage
ac
##ella
inequitable
particulars
foia
fargo
expand
fresh
witnessed
publicity
learn
cruel
bids
##house
relieved
pieces
seventy
repay
prudential
iron
trained
procedurally
dixon
dock
offensive
deals
##side
dependency
carroll
banking
stored
container
analyzing
agreeing
upholding
intermediate
##her
undertaking
emphasize
fidelity
structural
withhold
brien
mechanic
unpersuasive
pub
kim
mi
brian
vacating
indefinite
130
guy
cancel
##ria
assaulted
arrests
municipalities
enacting
arnold
statistical
1957
administer
guarantees
##mc
willingness
ben
dangers
torts
dhs
reflecting
sever
cold
encouraged
403
traveled
finished
universal
modifications
hoffman
posture
estimates
mediation
daniels
safeguards
##void
milk
scheduling
disqualify
eases
fixing
##gi
facing
##ita
bulk
##ho
cutting
aiding
seq
wholesale
hi
eyewitness
##ja
intrusion
burdens
tenancy
parallel
grounded
bonus
conformity
grossly
tro
disclosures
falling
##cher
heretofore
demeanor
intervenor
##ck
estates
##ver
century
craig
wanton
parks
index
suspicious
##dc
submissions
win
deputies
sherman
wind
##ay
harold
comport
junior
arguendo
neal
ja
duress
specificity
900
aforementioned
arbitrarily
writs
treasurer
cor
consortium
rifle
journal
odor
competence
dui
hawkins
smaller
legality
bur
madison
webb
taxing
burke
mon
declining
implementing
stein
cleaning
##lan
mann
basement
intervenors
pecuniary
##low
invoice
redress
strikes
earn
formation
straight
similarity
ken
avoiding
conditioned
delinquency
unfortunately
exhibited
advocate
##ec
articulate
##idad
retaining
palmer
taxed
initiate
thoroughly
subcontractors
truly
spend
pushed
designate
assessor
bodies
ob
proffer
avail
pendent
appropriation
##ph
ibid
adjudicate
depreciation
atlantic
liberal
constitutions
retains
ra
ineligible
grandparents
height
spousal
affiant
antonio
demanding
gambling
crim
submits
leonard
350
codefendant
mall
relatives
harsh
expanded
##ins
directs
institutional
ba
privity
greene
transit
motorcycle
##ick
induce
alert
totaling
forces
clay
constant
confusing
jewelry
##fs
msa
inconsistency
intelligent
elementary
destroy
confront
border
grave
consolidation
region
mission
chi
capacities
grievances
mor
owes
realize
cord
kin
ending
dea
##more
wording
obstruction
sheets
robbed
distributor
voter
objecting
ineffectiveness
##com
abortion
contamination
contradict
borrowed
val
pi
caliber
shipment
testimonial
auditor
integral
prevailed
intelligently
ditch
ascertained
diamond
beliefs
commented
opp
disparity
vicinity
round
invitation
appointing
collecting
wear
prospect
simpson
##llo
logically
dealings
jo
##all
rea
displayed
ph
2016
awareness
website
##ven
med
##ip
touch
gilbert
negotiation
ment
##dell
incrimination
firing
surprise
referral
consecutively
deems
115
motors
111
sobre
modern
ne
squarely
specialized
royal
unwilling
lifetime
prayer
punish
consultation
tended
dental
counselor
consumption
consultant
conceal
triggered
treaty
ensued
1956
po
seriousness
knight
walls
abusive
efficiency
bare
tainted
unequivocally
lifting
conservation
personality
precluding
##ll
dissolved
closer
carries
convert
calculate
th
albert
pornography
interfered
protects
encompass
##tel
vary
threw
playing
##ue
gained
knocked
centers
kevin
obliged
sessions
commits
911
##our
legs
christian
alley
cured
dale
francis
parol
pan
jeffrey
shut
firms
insists
##berry
lunch
blank
##ren
possesses
attitude
promoted
invalidate
leon
caught
observing
spirit
confessed
searching
generic
citizenship
adhere
deducted
repeat
remitted
questionable
guardianship
spoken
billed
handbook
animal
desk
santa
inducement
ferguson
##ism
deliberation
horn
hospitalization
qualification
tar
oppose
grain
preexisting
frequent
favored
spot
underinsured
##ite
consumed
touched
erie
detrimental
deviation
cruz
insolvent
fundamentally
flsa
futile
contributing
1955
toll
andrew
proportion
##ab
unfairly
hood
han
rig
ya
punished
shifting
stable
occasionally
sequence
growing
wants
god
##ix
somebody
depart
compulsory
prompted
venire
severed
automobiles
enjoy
const
greatly
##lc
rem
##rc
unequivocal
riley
procurement
clarified
liquid
financially
hay
resisting
install
##town
losing
forgery
touching
deep
##ud
warner
##out
cancelled
em
accumulated
anxiety
desires
sunday
china
honest
culpability
sealed
storm
##2
contingency
producers
solicit
107
##ure
icc
residing
reserves
library
bright
##len
procured
##pl
batson
##mark
companion
windows
mike
minimize
feasible
telephoned
alteration
plenary
dicta
homeowners
##ou
vacant
assignee
discriminated
disabilities
fmla
everyone
fue
differs
guest
smoke
computation
##inger
passion
unreliable
##ai
##ora
broadcast
surplus
allowable
blacks
corroboration
highways
bra
abandon
workplace
decrease
cigarettes
concepts
effectiveness
relocation
band
justifying
vest
grantor
funded
delegated
kar
photographic
##ani
todd
margin
inspected
undertook
concentration
tracks
aggravation
secrets
##ico
entrapment
continuously
computed
boxes
##sch
screen
blanket
bal
scenario
confirming
ke
affiliated
sta
seventeen
unions
##ang
farms
##ran
mack
armstrong
gm
compact
effected
160
vision
bush
pregnant
miami
northwest
##uk
##ff
beat
carol
martial
ridge
lied
mitigate
england
composition
zero
frauds
rod
justifiable
##ds
egregious
mal
fishing
lapse
quantities
altercation
species
elapsed
owe
loading
debate
golf
identifies
facial
boyfriend
bounds
prosecutors
unconscionable
elevator
visual
chart
rationally
routinely
sears
host
completing
regulating
gill
sch
##cc
restore
adjoining
golden
verify
thrust
undersigned
okay
won
##tc
sight
finger
materiality
pe
naming
absurd
##rb
##un
currency
apprehended
torture
releases
negotiating
persuade
factfinder
perspective
ramirez
degrees
##ities
norman
meyer
qui
merged
investor
jim
engineers
insufficiency
revolver
warden
fingerprints
cigarette
easy
elicit
drunk
jose
bidder
aunt
imported
culpable
lloyd
headquarters
##back
recitation
##min
spread
gerald
fa
##cu
aforesaid
simon
uncontradicted
lis
warranties
wolf
klein
smoking
subpoenas
allied
wise
yellow
petroleum
coerced
tower
sal
traditionally
##ible
metro
##ara
kane
novel
repealed
qualifying
##tin
108
ku
rein
acknowledgment
##of
rhode
principally
couldn
rec
images
hawaii
##ach
contemplates
spencer
seated
print
tu
injure
andrews
sensitive
##tic
pricing
##ble
pin
clarity
courthouse
impairments
ur
jean
proprietary
140
medications
shore
ie
facially
##car
hicks
duncan
pose
match
cotton
oliver
doctrines
juries
canal
coercive
projected
author
keith
suspects
enters
stamp
investigatory
rare
modifying
ripe
memorial
cleveland
109
powder
incur
blocks
ber
imputed
exited
procure
familiarity
frequency
branches
ly
subcontract
envelope
##ide
overt
##ov
permissive
funeral
enjoyment
##sp
eis
##bert
##dale
alarm
##bl
paraphernalia
nassau
##hc
dust
invested
anonymous
desirable
insist
##gle
payne
karen
rescind
feature
landfill
buying
global
abide
##ea
unilateral
curb
decreed
enhance
appealing
era
tech
##red
##ei
fer
stabbed
verification
accrue
1954
hip
salaries
mun
recess
utah
native
apple
concession
##ship
wallet
##bar
ambulance
chrysler
vernon
waiving
upward
##ft
eminent
nominal
enjoyed
ocean
resource
impacts
medically
abatement
112
cer
empty
distinguishing
bernard
quick
##vo
decl
appreciate
##over
lisa
empowered
science
remembered
overhead
##ane
subsidiaries
hills
administering
array
season
departments
pays
libel
rejects
music
tie
##ors
speculate
##hl
##rin
ones
irrespective
##aa
averred
puc
##ative
registry
##ile
forcible
installments
delta
vessels
conspirators
chevrolet
outrageous
segregation
lung
oversight
gardner
sentencia
descriptions
stages
robber
gap
forged
invalidity
##ula
restrained
##ding
resume
##ep
ski
derecho
canada
suppliers
literal
techniques
berg
misrepresented
##ub
drink
succession
complicated
missed
beverages
staying
aided
indicia
switch
electricity
maybe
850
nancy
solicitor
bishop
nycrr
timeliness
refuses
##star
hopkins
porch
favorably
acquiring
unsuccessfully
roger
kelley
hon
markets
remanding
lending
spite
wade
competitors
thereunder
nervous
falsity
noncompliance
tracts
harry
kinds
implicate
cha
endorsed
dictates
wheeler
mag
rebutted
amending
discrepancy
winter
palm
abetting
enrolled
clerical
restoration
unavailing
morrison
uncle
pit
marion
acknowledging
willis
lumber
purports
rubin
feeling
flawed
ram
gil
schwartz
tab
senator
exclusions
mel
plurality
min
recklessly
borne
avers
brake
##ris
hospitalized
whereabouts
jacobs
135
stations
exigent
cousin
##care
declines
prosecutions
distributing
eviction
corn
ven
dar
conversely
nichols
bro
tan
choosing
documented
holiday
sports
hidden
glen
afraid
equities
unsafe
expenditure
distributors
peer
cas
comptroller
bat
chooses
guards
bidding
schmidt
oct
furnishing
royalties
farmer
individualized
prescribe
civilian
intentions
friedman
eagle
cobb
##eb
haven
thinking
compl
rich
##gan
reaches
##eg
##cia
seeming
ron
composed
##ag
disturbance
##ful
queens
weiss
wet
subdivisions
##disproportionate
opt
weak
anguish
orderly
aliens
tendency
shock
advertisement
ol
transmitted
recipients
##ew
occupant
raped
neighbors
excludes
roth
enumeration
messages
dress
tolled
diversion
stephens
mutually
integrated
devoted
meaningless
##ib
punishable
maker
gunshot
psc
newman
reviewable
##ze
accepts
lynn
advisement
bone
tra
extraneous
ralph
##del
conservator
administrators
subordinate
rural
exam
weekend
testamentary
hazards
incorporate
reimbursed
##mos
perkins
skin
magnitude
barring
corrective
uim
tal
stockholder
dealership
french
##vis
##hill
settlements
aids
merrill
depth
iep
beck
comprised
booth
chapman
eric
concurrence
proves
nurses
pump
urging
timothy
eighty
crop
qualifies
resigned
matthews
mer
adjust
collector
burton
hereto
image
adea
heading
pair
carpenter
progressive
matched
##vin
##che
conscience
gravel
residue
unlimited
dow
wagner
sims
architect
##ill
##ward
practicing
psr
persistent
aimed
tickets
deleted
harper
wouldn
ministerial
wil
##cha
shipping
ref
wild
italics
nunc
usa
stairs
##zer
stipulations
handwritten
elimination
arrange
pur
springs
breaches
##port
veteran
visiting
miscarriage
##era
##elli
oh
stopping
closure
holland
##encia
glenn
impropriety
##cl
anticipate
respecting
ix
samuel
ethics
##ery
##ks
240
handcuffed
stringent
blind
crash
sells
avoidance
enjoining
##ong
inheritance
##ries
oak
##ence
technically
occasioned
manifested
##fer
mindful
saturday
sweeney
random
weaver
demonstration
vista
screening
craft
valve
inch
disallowed
domicile
rata
residency
raw
joins
barry
uncontested
statistics
delegation
shifted
lang
##ken
atlanta
ble
davidson
paramount
complying
varying
tobacco
enact
overturned
worse
brennan
ancillary
##itt
inapposite
##tt
anybody
servant
refute
unquestionabl
inaction
sham
explanations
chemicals
solicited
waives
receivable
confessions
setoff
annually
accrual
tires
bryan
meritless
null
compels
anywhere
vincent
ensuing
##view
nonresident
repeal
ego
southwest
redacted
literature
snyder
hal
campus
processed
amply
mae
ethical
lowest
casey
weighs
fulfilled
daughters
suffolk
frederick
mode
excusable
paso
unidentified
vast
buck
1953
altogether
##fc
forming
##res
expensive
reluctant
doubtful
450
promoting
##ock
##ser
inconvenience
cents
roman
slow
discharging
##qui
##erman
connect
unambiguously
##oli
tier
pole
sept
classifications
dividends
preserving
mistakenly
sha
##ato
operational
exemplary
apprehension
114
##nce
max
za
##eat
ag
impliedly
##gs
surrogate
spine
spanish
principals
indispensable
diligent
rooms
bre
containers
ti
episode
210
indians
earl
convenient
brakes
identifiable
121
retainer
tissue
feb
##tion
francisco
associations
shipped
salt
purport
chen
condemned
grocery
ruth
inception
##hart
encompasses
booker
shoe
anticipation
marihuana
regards
notation
secondly
##gar
vo
extensively
drawings
safely
exxon
loose
##iz
expressing
sleeping
##lon
trail
relevancy
decides
sharon
assisting
betty
hampshire
ladder
cre
##ston
meanwhile
bylaws
corroborate
steve
lasted
crystal
exercises
resides
113
abstention
resistance
##ls
##ura
dia
jay
biased
marie
brick
aug
crown
orthopedic
##lic
looks
inserted
generate
infringed
drafting
external
lexis
crossed
shu
restrain
##bs
substantively
ortiz
carbon
ensuring
margaret
naturally
##bc
deception
bull
##ped
validly
indicative
employing
levine
extradition
criterion
brokers
penis
hy
enabling
penetration
robberies
conspired
marshal
reid
tant
appointments
##ington
consensual
recordings
##ably
brewer
cashier
embodied
flores
plane
detroit
persuasion
##ther
goodwill
whichever
watkins
feed
addendum
olson
constrained
##work
blow
strain
juan
##hn
williamson
lenders
sp
median
##rt
prevention
175
trash
nat
introducing
##din
distinctions
acute
visa
particularized
professionals
attacking
nu
seize
lucas
concert
##pd
##ua
tam
imp
adults
bob
practicable
infection
deceive
undergo
##cal
therewith
lan
deductible
barge
seizures
formulation
moss
alan
denver
struggle
transporting
slipped
stepped
unilaterally
beating
repaired
eugene
##upon
animals
nepa
jar
accusation
eliminating
recovering
labeled
resale
irrational
pledge
perception
doyle
##ator
fuller
##ridge
sdcl
sen
##gue
benjamin
tavern
thousands
consequential
##cio
leasehold
chandler
restored
disbarment
##ese
seconds
##nick
##net
amicus
coastal
quote
inclined
prayed
remittitur
marsh
comm
##ison
tactics
subd
dillon
reprimand
territorial
##ena
##ise
cunningham
differential
##ping
disclaimer
damaging
victor
geographic
racially
equipped
handicapped
stability
##row
utilizing
suing
convening
fracture
rays
technique
pace
posting
##bank
diagnostic
lip
recites
117
vagueness
games
##zo
implications
resumed
platform
clayton
garrett
##ji
literally
advertisements
motives
stemm
cervical
chevron
##tra
##els
fluid
donna
ceiling
compartment
##ari
mu
uniformity
holt
decreased
##pt
##lar
balanced
##ef
disclosing
purporting
fur
discriminate
rendition
profile
kent
elliott
fo
##art
##misappropriation
angry
enrollment
tall
lodged
proofs
survival
males
narcotic
differing
skilled
web
gifts
##sel
sodomy
levied
##sey
##head
##sley
hale
veracity
acquiescence
selecting
underwent
##nes
vigorously
ash
recourse
coat
floyd
hammer
appealability
suddenly
170
##aw
vaughn
##dr
bon
johnston
nullity
spouses
morales
strategic
##ala
mount
inspections
numbered
##mm
##rp
viii
burn
##tech
116
shape
##fe
filling
##burg
##yn
withstand
tube
te
statewide
misuse
revoking
gates
colleagues
119
hunting
threaten
psi
tyler
unnecessarily
encompassed
ze
fewer
ramp
mcc
tunc
chris
propensity
disposing
##ok
particularity
hu
awaiting
assigning
questionnaire
feelings
ucc
largest
urine
prince
corroborating
molestation
favors
counted
122
departed
lambert
pervasive
assurances
pis
invoking
linked
purposeful
invest
debatable
precedents
rarely
118
explosion
style
forthwith
unfit
substantiate
190
tbe
##arily
hancock
maria
tribes
alive
gear
##rey
overturn
gro
##aba
foreseeability
denials
approximate
relators
howell
fin
dominion
hypothesis
supervising
ballots
heightened
walsh
barn
mechanics
semi
pharmacy
homeowner
pertains
succeeded
infringing
barrett
##ring
roughly
affiliation
lodge
phoenix
##ru
fruit
dictate
loud
matthew
##gg
440
row
lifted
analogy
sandra
prescriptive
graves
ala
ic
scan
helen
attaches
##board
cit
pip
framed
##itz
technician
ascertaining
##ax
acid
fighting
hallway
ties
recreation
blake
sobriety
counters
ea
##point
restraints
guided
adopts
##tu
##ndiscriminatory
bates
##ye
democratic
##eth
akin
##uc
survived
gomez
philip
transferee
criticism
stealing
extinguished
##hs
dist
dominant
sugar
violative
traumatic
bleeding
wilful
omnibus
entrusted
mislead
informer
interfering
mccarthy
##br
volunteer
xi
couch
admonition
vagina
temporal
brokerage
declares
1952
201
experiencing
shed
burning
gains
131
consciousness
##bb
thrown
cuando
weber
summation
moderate
meat
ammunition
intellectual
positively
##kins
##bel
124
richmond
incapacity
##cor
larson
justifies
enclosed
ark
inevitable
annexed
magazine
indecent
mobil
##igan
detainer
misunderstand
dor
latitude
ind
1950
shirley
##ki
fu
##att
trucking
##and
tanks
reiterate
temperature
pretty
garden
rain
myself
villa
conjecture
feels
faulty
assaults
##let
stan
lawson
sewage
evidently
123
##jo
fingerprint
casino
##nc
##rr
ren
yards
illegality
overly
superseding
feared
classroom
##med
assumptions
discrepancies
insuring
accessible
choices
##elle
mich
jennifer
loaned
ty
##cy
dodge
dairy
rank
brook
extensions
versus
##sco
welch
##rio
affords
canadian
announcement
##stone
motorists
retrieved
fra
payee
enunciated
computing
stem
billy
imprisoned
##cs
distributions
##mont
apprised
barker
considerably
baldwin
tag
edison
selective
uniformly
guarantor
intervened
intimidation
caldwell
recommending
rubber
pope
vicarious
##rich
scar
servicing
rulemaking
lanes
imports
arguable
exchanged
dorothy
rehabilitative
pauperis
cam
severally
contemplate
pressed
tactical
soft
dispatch
entre
obligor
widely
##etti
litigating
transpired
titled
aggressive
flexible
subsections
cu
foods
forcing
independence
discrete
belong
##we
sophisticated
comparing
christ
dwi
plaza
developments
##iv
proponent
curative
##ifying
wa
speaks
plumbing
bas
adds
latest
##cr
occupy
competitor
packages
gathered
coffee
outer
emphasizes
herbert
preceded
pills
dirt
fleming
racketeering
mcg
##water
bel
heating
##hm
##ando
midnight
referendum
deferential
gene
steal
mexican
gre
scrap
evi
dss
redirect
annum
patrons
producer
signals
gaming
220
cia
barnett
recorder
burned
esa
railway
jason
katz
##ados
discourage
hitting
discontinued
##ele
barber
affirmation
sisters
produces
bac
delivering
##uf
specifies
detain
richards
historic
char
##rie
hereof
##win
truthful
tim
export
shooter
803
historically
##4
##yer
##cm
focusing
defs
dividend
##eman
proscribed
alerted
cual
##dt
##ung
bronx
dispatcher
gay
accelerated
colon
undermined
##nell
fulton
insolvency
pulling
##aro
disabling
comp
keller
##tar
jumped
willie
supplemented
originated
##amount
lowe
battle
opponent
premeditated
cc
recusal
digital
newspapers
##tal
mur
accommodations
refunds
maturity
christmas
##ata
firmly
ratified
burdensome
##illo
##das
##lis
leader
wine
throw
ker
easements
apr
proportionate
premeditation
comprising
prueba
1951
conventional
##cp
adoptive
##worth
federally
##tr
unc
conspirator
undivided
9632
objectionable
safeguard
sky
##king
pot
inflammatory
reaffirmed
lyons
consistency
prop
contesting
##ys
sac
1947
forbidden
tuition
audio
tate
logan
proxy
petit
gonzales
quinn
protocol
##41
spending
702
discounted
mootness
nonconforming
varied
tailored
ste
dogs
appraised
##fr
nonpayment
undisclosed
builders
est
courses
overpayment
bridges
kirk
instancia
mold
circumvent
divide
beaten
ratification
##owski
kal
successors
pound
wrist
##gel
joyce
mcgee
asleep
##ius
reyes
depriving
mirror
deviate
therapist
meruit
remit
kay
ci
privately
overriding
sake
salvage
collided
input
irving
hr
ups
arc
gathering
barrier
##eau
##enberg
baton
unacceptable
midwest
fleet
maternal
hide
tin
intensive
norris
disruption
##og
bu
angel
obscene
lit
quarters
propose
8217
span
jennings
flowing
subpoenaed
involuntarily
reformation
##ju
fallen
tre
nuclear
##met
hoc
ru
airline
interpreter
latent
##du
farming
excellent
versions
retarded
bend
definitive
infringe
126
mul
mont
ki
disagrees
tv
##tes
chester
catch
ascertainable
grandfather
juveniles
##je
admiralty
gi
thornton
moran
hundreds
dun
garbage
criminally
301
happening
##bury
nerve
pretextual
cd
ant
##lf
hol
drain
##lee
accusations
confirms
##nte
brock
nlrb
mckinney
instrumentality
disorderly
viability
##ses
stab
gra
commentary
approaches
beverage
fri
curiae
indeterminate
bow
prolonged
academy
deceit
peril
arisen
acreage
225
127
##ned
resist
##oni
segment
vacancy
league
caller
admonished
mai
dividing
expedited
fixtures
##use
intimate
##key
noble
fireman
characteristic
provocation
printing
mix
cloud
##ct
parameters
wisdom
gotten
reopening
shipments
racing
poses
taped
malone
complexity
entertainment
caption
flag
##zi
twin
pearson
carlson
grove
##lp
frustrate
sanity
debris
publications
somewhere
flexibility
breakdown
rosa
anger
mad
tunnel
survivor
muscle
unfairness
##val
dicha
allocate
slander
promotional
exempted
ssa
sh
rosen
experiences
erected
goodman
kicked
183
grass
islands
livestock
tele
mild
lamb
merchant
inflict
cement
purview
sc
##ello
stressed
stabbing
inadvertently
hor
owen
phrases
unemployed
fined
trips
##tive
westchester
##rg
invocation
bd
exterior
packaging
earth
proposes
ages
conferences
minerals
expectancy
standpoint
commander
unspecified
rouge
veil
differed
##ade
partnerships
murdered
bald
pac
artificial
schneider
appropriated
invalidated
nolo
mccoy
##ros
inevitably
resp
cir
lt
definitely
reconstruction
stipulate
stronger
##ira
inclusive
recounted
residences
trend
passes
##ld
initiation
lumbar
ali
##bee
pittman
tension
137
prefer
width
watching
overlooked
interrupted
unfavorable
watched
instructive
bullets
plates
encouraging
128
earliest
clinton
obey
unfortunate
fan
num
scienter
anne
stick
qua
hodges
classic
len
bass
overnight
ira
mortgagor
les
juez
cameron
ignorance
gainful
arrears
juncture
kor
isolation
##etta
##fin
esq
underground
##brook
##burn
lend
rick
##mel
abuses
detailing
valorem
toxic
##aff
identifications
push
specialty
mcdonnell
salesman
vaginal
##gu
passive
nineteen
vehicular
backed
osha
overlap
database
herewith
closet
bio
##chi
fruits
133
billion
speeding
inadequacy
##tro
1949
communities
medium
lp
exh
mri
wash
diminution
animus
intact
##ona
##time
devise
circle
fourteenth
committees
cadillac
gravity
##uch
dupont
sterling
401
hansen
lighting
bruises
depicted
stuff
mt
conceivable
coa
summarize
rapid
ignoring
connecting
##air
##ito
##av
commodity
deduct
devised
##pro
gran
abbott
##ev
randall
meter
##ough
##mmer
baseball
byrd
129
borrow
wore
lounge
callahan
codified
moody
stern
advantages
pel
bicycle
##rm
barr
economically
precision
recite
sur
vaccine
rush
offending
pack
mini
builder
tentative
await
rezoning
161
grantee
knock
##ras
dol
morton
excepted
pronounced
perfectly
expire
##ole
pr
takings
injurious
dawson
##des
cells
precautions
inculpatory
spi
satisfactorily
sanctioned
kit
mails
##wi
delegate
illustrate
london
dedicated
governments
inadvertent
fatally
138
german
pedestrian
ftc
contradiction
hereunder
unexpected
vendors
habia
nicholas
siblings
##meyer
tow
consummated
explore
##ien
fn
seaman
besides
accessory
consolidate
##tas
cur
deborah
measuring
stomach
channels
destination
appropriateness
intra
interesting
##ucci
wildlife
134
controverted
chargeable
addiction
escaped
headaches
gentlemen
necessitated
compound
##augh
rad
retrieve
sba
scores
kilograms
os
newton
##od
nose
taught
##cker
distinguishes
coach
pier
compulsion
contests
frazier
rigid
unsatisfactory
utilization
mut
basin
##ui
predominant
dependents
financed
360
##ice
retardation
duplicative
servitude
wi
abc
goldman
engages
resign
##kowski
hampton
shorter
kre
ambit
receivership
bird
horses
predict
happens
ted
prerequisites
transition
hanson
diminish
##ical
belongs
maxwell
wake
unqualified
interaction
worn
rev
##lock
pittsburgh
onset
forever
underwriters
teach
videotaped
uncovered
policeman
puede
maj
evil
withdrawing
collier
surrendered
wing
intertwined
football
cass
faces
distinctive
pond
castle
atmosphere
stole
##16
breast
upstairs
squad
supplying
lap
lading
cy
sto
criticized
##away
##ious
captioned
##tner
superseded
blair
disciplined
spain
215
publishing
excavation
earnest
##zy
impartiality
##vers
##par
navajo
goldstein
paperwork
labels
stems
coordinator
pcr
202
ladies
ranging
144
lady
tear
taint
executory
recklessness
orden
nonmovant
walton
fleeing
intangible
expose
reunification
reservoir
ros
##mas
leak
performs
beverly
inferior
##kel
walters
punctuation
bobby
override
##ante
healthcare
reciprocal
##az
redeem
##ox
##ack
singh
lodestar
preferential
rescue
factory
adhered
appropriations
##horn
buckley
finish
132
partly
##ory
##81
constructing
generalized
albany
##hy
tampering
cannon
lite
diane
painting
desist
aviation
injection
185
preempt
##bre
substituting
##tex
carpet
drastic
demolition
herman
greatest
##duc
##ave
##pin
developers
usf
abilities
puts
soliciting
certifying
crying
kra
articulable
moneys
ramos
adjudicating
structured
equitably
lookout
alice
163
##ology
permanency
breathing
##uff
cleared
melvin
1948
kaiser
suggestions
throat
player
monte
stark
rentals
becker
evade
haul
collaterally
listen
reward
pres
tive
roe
blame
targeted
causa
136
cellular
wiretap
monopoly
asi
emissions
adam
ruiz
speaker
predecessors
unresolved
serial
assent
reargument
indefinitely
elderly
surprised
reservations
anna
205
remorse
wetlands
apportioned
curve
mistakes
##las
cle
hammond
165
accountable
michelle
watts
##eaux
##erson
boulevard
contemplation
##itis
cert
##eck
collapse
bin
analyses
conveying
judged
dispositional
meantime
realistic
discoverable
sar
##aj
invitee
1000
practically
yo
##nd
conscientious
understandable
duplicate
cup
280
wy
marcus
cola
defeated
nonprofit
##mis
aim
cho
vulnerable
##gate
sierra
insistence
brenda
repetitive
lakes
reeves
contradicts
##osa
stops
southeast
jimmy
releasing
ipsa
patterns
##amente
pronouncement
##strom
##olo
springfield
blade
computers
sutton
acquiesced
shelton
##hp
anyway
ideas
##istic
consuming
handwriting
comfort
scintilla
##ii
impeached
counterfeit
corporal
repose
##83
deposed
hosp
bla
alvarez
detected
270
habitat
ace
elaborate
pto
##yo
format
pertain
expresses
cautioned
promotions
complies
##gh
##nb
appreciation
ankle
spill
managerial
unloading
gets
conditioning
verbally
hardy
arrearage
unconscious
bargained
unavailability
dedication
lottery
horton
fowler
155
bp
cheek
##uck
aba
benefited
photos
jeff
bulletin
ideal
hung
mca
##tis
regime
beard
shannon
145
nondisclosure
##ero
dade
##rate
leo
stack
##ast
practitioner
empire
continuity
precedential
forfeit
copying
commercially
stuart
cabinet
fictitious
harassing
temple
cro
joan
fletcher
informants
panels
navigable
northeast
ibm
chamber
rsmo
waivers
ashley
hil
irrevocable
confuse
##bu
firefighters
organic
contexts
##ral
drawer
smell
nonsuit
micro
whit
dictated
unjustified
ware
retire
narrative
unexplained
##iy
rescinded
drill
##reserving
lone
advocacy
agriculture
colonial
adjudicatory
marvin
##dis
##ess
impede
wyoming
ernest
##ees
imagine
disbarred
spaces
birthday
generation
plot
donnell
affiliates
caseworker
rolled
programming
##bach
comity
suppose
sedentary
151
adherence
##ium
quotations
benson
loyalty
grades
weakness
470
benton
stepfather
laura
##ain
handcuffs
verbatim
mahoney
travis
depended
##ions
mens
hispanic
randy
satisfying
forthcoming
texaco
projections
toilet
sublease
lar
alliance
ritter
bru
##ever
pad
justiciable
sci
randolph
shapiro
corruption
gather
tel
1946
flee
zo
emails
flooding
pratt
contractually
provisional
reminded
##ign
contaminated
casa
observes
failures
obtains
discharges
worthy
advertised
pas
allowances
mixture
duke
nations
demotion
550
lees
steering
extortion
windfall
accumulation
movants
summoned
prongs
sweet
##ug
borrowers
untenable
codefendants
codes
sees
smelled
popular
endeavor
disturbing
deterrence
outright
nash
dissolve
ramsey
hatch
det
reg
treble
insane
mask
pellee
landing
airplane
dissatisfied
systematic
eventual
publish
dues
viz
accrues
routes
cercla
truthfulness
ip
decisive
discovering
heights
groundwater
ri
stevenson
organ
corrupt
##bra
apparatus
dur
##ene
maxim
evid
sarah
griffith
examiners
straightforward
joy
divest
endangered
ingram
helping
##inski
alterations
pal
counterclaimed
frustrated
pop
poly
occasional
##arse
confident
insignificant
underneath
spa
swimming
mercy
bowman
marc
negro
arrearages
consultants
garnishee
overbroad
root
feldman
##sta
prostitution
##ann
##vert
mathematical
decrees
##nan
depict
entitl
integration
appraisers
incorporates
jacob
column
repaid
occupying
expansive
pathologist
##yl
sweep
##tle
##cra
dinner
allegheny
650
crops
similarities
##lor
remedied
telecommunicati
nomination
acc
generating
detect
cuts
##uth
repurchase
coin
pipes
unfounded
widespread
defensive
cow
canon
##ning
##ux
petty
detection
tur
propositions
adversarial
##47
dick
feasibility
fitzgerald
vermont
intending
anchor
baxter
rough
dictum
robbins
retailers
christi
260
accruing
interruption
childhood
prerogative
clearance
presided
excerpts
##sb
##tan
shipper
odds
quashed
deadlines
phillip
odd
shelby
dev
retroactivity
contendere
rhodes
##ured
reader
##yan
defended
masters
estado
railroads
ourselves
pockets
##oa
irregularities
##mes
derive
cart
notary
irrigation
##sville
arts
initiating
titles
##ob
laundry
perpetrated
designating
airlines
bypass
rated
##sman
tortfeasors
rid
engagement
gan
leslie
hydro
var
occurrences
procuring
aaron
230
tony
eat
docketed
eyewitnesses
recuse
incapacitated
rider
understands
##ore
baptist
##app
troy
sim
##ult
disadvantage
berger
wolfe
angle
##nik
##mic
heritage
dishonest
hoped
casual
compiled
debra
indications
prevails
peak
promulgate
cra
unconditional
dressed
cycle
lessees
dishonesty
transform
guests
188
disprove
conceivably
von
spray
##92
mus
bath
barrel
vent
turnover
breaks
##ndo
manning
bomb
##ferring
##lam
wrongly
janet
headed
gu
replacing
holes
footnotes
ce
dumping
##uz
reluctance
belated
knox
resisted
cong
overheard
zoned
reassignment
trustworthiness
bowen
matt
possessor
transmit
dating
outdoor
eeo
redevelopment
##my
hogan
practiced
##cho
##mat
breathalyzer
donor
graduate
##cb
beside
persona
cynthia
progeny
revise
ju
burlington
goldberg
disregarding
objectors
kaplan
neil
joining
merge
discusses
fax
##van
possessory
robbers
chinese
nj
hubbard
jet
pendens
logs
unre
protests
vel
neill
##sis
##wick
importation
uni
untrue
worst
quarterly
stamps
census
schemes
enforceability
carey
manhattan
275
meal
hose
testatrix
shields
##dle
162
sup
bol
beneath
141
intrastate
sgt
proprietor
lou
paternal
##ram
poll
horizontal
draws
bert
settlor
jensen
elevated
afdc
prospects
suspending
santiago
curry
surcharge
periodically
##stra
##7
reweigh
castro
phases
intestate
equate
lord
haynes
cleanup
ec
scha
rivers
##vid
koch
cemetery
incorporating
inverse
rowe
optional
##ela
##nis
labeling
lafayette
##tti
171
announce
ftca
indenture
##vel
calm
garner
rebuttable
##cul
sympathy
fly
168
gutierrez
analyst
variable
oppressive
##dos
1943
behavioral
adjuster
reflection
unchanged
arraigned
repetition
secrecy
cherry
descriptive
elec
dem
dotd
cry
carlos
dc
vin
##ency
vein
advisor
towing
activated
wires
conveniens
fugitive
colored
seed
##oma
reconcile
flowers
##ban
abnormal
umbrella
prepayment
cons
##lay
hostility
executors
sw
enabled
grow
supposedly
yelled
steam
incredible
medina
players
meyers
controversies
dixie
##aria
delineated
302
films
##sell
##ters
diseases
boyle
teeth
dicho
dickerson
providence
##vey
attained
blocked
complainants
ft
residuary
fabric
atkins
tells
prosecutrix
oxygen
weinstein
bradford
lester
matching
##tte
attributes
drs
tru
jump
acceleration
columbus
##rum
cruelty
milton
illustrates
constantly
trailers
##uri
romero
needless
mccormick
unnamed
employs
211
dim
oriented
bifurcated
disruptive
scales
healthy
##feld
ostensibly
pol
##ias
purposefully
jnov
inquiring
nick
scho
##bridge
tuesday
##ves
deterrent
honored
410
alex
uncharged
unprofessional
adkins
pioneer
probationer
##law
##eri
375
##pen
stroke
##oy
bent
reopened
##eur
solo
ssi
reductions
layer
##ret
1945
zi
julie
termed
predominate
tions
bis
wagon
greg
kimberly
condemn
veto
diligently
communicating
143
movements
bottles
##aga
felonious
linking
thirds
##cer
entitles
countervailing
quitclaim
frisk
##shaw
huff
problematic
duct
canceled
thin
disbursement
derives
patented
flows
hechos
catholic
manipulation
danny
achieving
fernandez
contravention
maddox
athletic
##kes
directives
laying
treatments
##hand
cautionary
##ath
hiv
townsend
fac
ut
brandon
af
incompetence
##iss
accounted
sanitary
bri
pm
summers
hook
clifford
interposed
prisons
hull
recommends
disorders
countries
possibilities
naked
wooden
freeze
garza
sponsor
phil
totaled
propounded
##iff
alleviate
licensees
hobbs
hindsight
retailer
bros
kerr
cincinnati
conditionally
segregated
##dd
exploration
patron
conn
exclusivity
longstanding
slope
evidenc
happy
minimis
carolyn
resultant
layoff
illegitimate
portland
trace
yourself
schultz
compromised
bolster
edition
eve
levin
lind
implicates
higgins
roles
robin
heinous
maliciously
stories
syn
repairing
impending
fingers
illicit
pulmonary
tracy
##cf
pari
lamp
203
testament
mcdaniel
handicap
##rus
##room
##mu
bribery
kathleen
reese
revealing
hess
server
exhaustive
geographical
tap
carson
sho
208
##pr
##lt
inspectors
circulation
##master
##ale
ceo
vacuum
fabricated
apprendi
preclusive
bankers
pledged
##nie
entertained
contiguous
meals
confine
clara
midland
saving
hinder
concealing
609
scared
memphis
commodities
166
##linger
sector
152
##tie
itc
relinquished
##hal
aluminum
wick
billings
prints
330
martha
helicopter
designs
supplementary
solutions
wesley
fits
boone
debe
##lyn
stamped
personam
310
suited
shower
mm
depressed
##dp
##iga
executrix
chances
causally
abolished
delaying
preston
interrogated
contacting
crude
affirms
dell
bidders
##ash
postponed
protracted
frye
modest
deterioration
loquitur
spinal
typed
fraction
adjournment
proviso
bil
subscribers
intoxicating
pontiac
pepper
abate
notions
crisis
rolls
colorable
clearing
aj
swift
desegregation
discontinue
dil
formulated
flynn
320
erect
republican
clerks
corners
continually
supportive
luggage
##iendo
chin
deer
emotionally
sponsored
##gc
deliveries
norton
utterly
johnny
mercury
punishments
stra
virgin
troubled
spectrum
rode
bou
kern
topic
trap
kathy
ok
##ties
unpreserved
suburban
yates
monitored
##usa
booking
hurricane
categorical
harmon
discomfort
portfolio
##ans
charity
207
nc
cognizant
gravamen
capitol
##iva
lam
germany
traded
tight
angela
genetic
##96
expressions
##ws
downtown
lem
aaa
excise
witt
subchapter
profitable
bom
constructively
147
##ky
leadership
##stad
coll
binder
gr
impeaching
recoupment
balances
revisit
wheat
hiding
crux
estop
commitments
chavez
bloom
od
willfulness
restroom
##illa
195
density
combine
wo
vesting
164
variations
locker
cooke
404
eng
confers
conceived
402
illustrated
disrupt
blm
cedar
chemist
fabrication
lawn
harassed
gist
305
illogical
insulation
voidable
##iu
divisions
duce
marina
bb
attaching
shea
cla
copied
##ister
dept
heir
##for
##berger
conner
intrusive
moyer
revisions
##ente
viewpoint
pf
ambiguities
##ya
ah
mclaughlin
presumptions
nephew
##form
mayo
gibbs
##sed
##ient
##coming
cashed
summit
expend
partes
sm
pushing
kaufman
manuel
hub
subordination
roofing
capitalization
ultra
boss
leniency
wrapped
attachments
flaw
burgess
connections
##ches
forcibly
updated
complications
legitimately
lindsey
liver
chem
vicariously
schu
noon
dissatisfaction
vasquez
combat
##lett
flu
oc
sounds
##beck
attribute
volunteered
aedpa
impacted
##table
circular
nas
sad
gallagher
easier
##bed
neu
burger
##tl
nobody
swan
##bell
##tman
unequal
insert
endorse
prospectively
inflation
directory
legislators
percentages
citibank
discredit
judy
landlords
irreconcilable
supersedeas
vertical
iq
everybody
neurological
mismo
grab
rfc
##una
bowling
treats
presidential
wheels
johns
degenerative
##ants
crowd
clarifying
officially
##ester
fischer
shi
342
pearl
tables
reassigned
luis
diego
accountants
hut
abstain
fl
##lm
shoulders
##wc
loses
conception
deficit
housed
japan
durham
inflated
decades
rom
regla
haber
apprise
remind
simultaneous
affection
alike
##bro
##dan
abutting
implying
grandchildren
merchants
380
cabin
hines
alfred
rif
146
lewd
kil
212
##ault
bite
subsidy
reclamation
##eu
additions
rim
daubert
rtc
departmental
surveys
656
misstatement
pilots
wool
##load
silva
oversee
leather
dismisses
rolling
advancement
235
accion
charlotte
harass
harms
friendly
stuck
affixed
##nor
din
enroll
luke
mostly
gram
accidentally
equalization
##ded
affiliate
drank
zimmerman
mandating
castillo
depose
trades
solomon
kramer
##sburg
beam
saved
guarantors
analytical
psychiatrists
asphalt
taxi
325
livingston
jerome
architectural
patton
frances
dump
##asco
bracken
belongings
tips
ratings
##mor
ervin
##tron
antecedent
mcguire
chattel
292
misma
glover
##baugh
gel
restaurants
fdcpa
wealth
176
##sm
##dl
wol
wrongs
enjoys
whites
adjourned
blunt
204
stale
refuted
drake
intermediary
remarked
gov
thursday
181
capability
tour
gall
lamar
models
##udi
retrospective
##ord
##nz
injunctions
##gard
ep
grimes
501
uh
steele
superfluous
identities
bowers
disapproved
skull
yelling
potter
pie
kon
149
worthless
bonding
fears
conservative
##85
installing
tanto
mainly
##wan
dorsey
dangerousness
deaths
everett
ful
signatory
caselaw
prescriptions
##light
139
advancing
fringe
cummings
unjustly
presentment
##adas
mck
##pm
precinct
disbursed
interval
diabetes
jeep
subparagraph
mileage
carlton
1934
obviousness
emerged
142
appraisals
itemized
##baum
relocate
148
hanging
rebecca
barton
implicat
harmony
##ifer
caring
buffalo
shepard
##iel
##ists
counting
##cus
navigation
om
antidump
transcribed
bajo
##har
averments
controller
mercure
straw
santos
copper
obstruct
holloway
grew
marketed
stocks
subscriber
towns
tons
substantiated
aver
eir
tail
militate
425
pers
kas
##mg
voluminous
violator
pag
movie
patrolman
340
##ario
##ech
absences
lexington
crest
tiene
sil
sol
conceding
wednesday
quarrel
cain
globe
constraints
terminates
styled
respiratory
borrowing
fiber
reciting
disinterested
excited
kids
polk
##tek
troopers
mg
smart
cooperating
procedimiento
finances
comprehend
ul
patel
pra
assn
opm
compatible
remediation
toyota
preferable
skid
stokes
delicti
conforming
disapprove
gauge
subjecting
relinquish
parolee
reissue
pertained
burnett
foley
diet
forego
consents
206
stranger
sco
surveyor
##tri
online
conduit
westinghouse
spin
##maker
embezzlement
prohibitions
insight
geo
##rn
##ose
appearances
arthritis
jonathan
##6
##nic
##ces
##ere
tenn
aboard
ballard
conveyances
##ota
owning
##end
orientation
cardiac
pastor
deleting
soto
153
underwriting
eddie
##ree
sara
meanings
petitioning
retirees
victory
peoples
##cent
px
##hoff
hrs
diverted
##ars
therapeutic
laundering
##ular
clair
delete
affair
gmac
compounded
##mr
aguilar
precipitated
costly
460
afterwards
harvest
altering
lanham
##aron
beasley
manor
massive
brad
dear
apelante
ou
outpatient
##cht
##anna
pamela
denominated
marginal
mud
##int
##ving
exp
administratrix
##ges
goodwin
sala
strange
bold
assembled
screaming
vexatious
clarke
thi
reinsurance
gloria
patentee
authenticity
tyson
cooperated
drafts
##gas
harrington
rapidly
heller
knees
sickness
##ations
##rea
209
cul
rio
diverse
swelling
elder
##lli
miner
throwing
##day
sel
amenable
inducing
infirmity
seats
255
elevation
wherever
169
scr
utterance
petro
dhr
186
math
productive
stretch
brush
wald
eaton
abeyance
burglaries
metlife
##fl
persisted
##lie
centered
mischief
tecum
overlooks
acquainted
authenticated
impediment
interviewing
##elman
segun
inadvertence
insubstantial
coroner
preliminarily
drag
subpart
unified
erosion
##yard
winn
fre
efficacy
##als
290
bern
entail
interpleader
304
gloves
##5
inextricably
norfolk
brooklyn
extract
obviate
israel
acosta
##ight
foreseen
##lining
announcing
birmingham
reconciliation
##nk
wiley
barriers
1938
tug
lor
drinks
##iger
workman
##ration
pitts
mos
cruiser
surprising
policyholders
##tec
coordination
fried
##mond
je
floors
pg
marry
213
enactments
##sten
nathan
germane
elects
##ama
hint
yielded
waller
injuring
cp
measurement
osborne
legitimacy
erection
sooner
clo
towers
brace
beds
sounding
useless
codigo
lancaster
##nn
conflicted
equivocal
nar
incompetency
guardians
##och
voiced
terminology
naval
kirby
##nas
stro
##dal
kemp
commensurate
picket
norma
##3
##yne
kos
acquaintance
405
unsworn
maps
fetus
variation
bop
ventures
yeah
instructional
organizational
##kle
dies
instructs
tying
sca
##oz
impossibility
##ider
picketing
kro
cogent
156
irregular
executives
visitors
coram
##iti
teller
catherine
disapproval
cursory
kol
crow
##pu
miscellaneous
psychotic
sovereignty
154
##ule
##utter
##ric
##ales
incompatible
backup
axiomatic
survivorship
halt
tile
##mit
kir
##atory
wu
##wp
##rl
nobis
##pel
glove
forbids
writings
hardware
wrongdoer
filter
forklift
coordinate
reduces
boats
##var
sla
homosexual
franks
spe
##gy
cognitive
lenient
hilton
conway
ica
##ual
pleads
##lk
pardon
radiation
consequent
moon
levee
achievement
inner
victoria
autos
lemon
zu
mortgaged
youthful
ers
impressed
##ili
saunders
unreported
##ben
testifies
ped
mature
onerous
listening
##oe
buick
ello
checkpoint
riot
embraced
breadth
allison
##ith
parsons
dance
realm
recount
mendoza
justifiably
remarriage
unlicensed
duplication
rodgers
sche
apportion
wills
dispatched
prudence
greer
ellen
usury
##mf
invite
##zel
##dic
hhs
dana
bonuses
frustration
preamble
pike
##craft
##gra
moreno
intense
mci
315
ky
slot
kam
ccc
gamble
cubic
##ali
##mans
arch
codicil
edwin
phelps
synonymous
relinquishment
gould
cream
dyer
lawton
unitary
irwin
vindicate
punch
che
1941
proportionality
fal
policemen
##pers
tran
restated
ethnic
resolucion
spoliation
exchanges
judith
187
christine
educ
chip
rope
jesse
joshua
assuring
attract
doj
tone
knowledgeable
winning
cochran
obstacle
manifestation
dissemination
wonder
correcting
010
anew
egress
irregularity
##born
powerful
157
retreat
outline
316
expeditious
dub
objector
365
shippers
davenport
nan
offend
hinds
commenting
rooted
177
mounted
exploitation
reset
shaped
mp
basing
##gon
##gging
bilateral
pavement
singleton
bart
intake
emphasizing
mccall
tommy
701
##ering
disqualifying
packet
accountability
408
##aud
trinity
##distinguishable
honda
spur
lobby
trademarks
dpw
discarded
champion
##hen
discounts
pleasure
absentee
##tter
honestly
nguyen
configuration
grady
elbow
thoughts
##rell
regions
millions
ot
females
unrestricted
heads
issuer
landmark
ese
gin
welding
hartman
purposely
corroborative
##chan
recoup
empower
arrestee
##ava
wilfully
expedite
automotive
##lb
interception
yearly
omaha
frost
northwestern
minus
##lla
massey
191
yu
ville
establishments
mod
calhoun
turpitude
##ved
enhancements
thumb
dad
holl
##sion
rand
flash
##ied
bequest
engines
cleaned
improving
reilly
infected
postjudgment
vests
inconclusive
quotes
unpersuaded
verizon
##uda
unincorporated
replete
##ute
##die
jon
nixon
aged
##uring
nova
depot
##ect
queen
kle
mercer
flo
brun
rust
restructuring
clarence
hecho
pon
convened
##amos
mess
cheryl
##dor
192
ner
endanger
consciously
##ray
excerpt
capriciously
##dia
anterior
1939
confess
##hardt
constr
shin
dining
buchanan
attractive
episodes
lilly
1933
suitcase
erickson
inpatient
prescribing
spontaneous
attain
dent
av
cool
##down
wheelchair
misapplied
electors
##heim
##hold
withdrawals
pod
authored
shortage
##gus
beth
suspicions
controvert
formulate
fha
grown
negated
dye
hanover
hoover
defaults
react
diesel
prospectus
rsa
##tch
connell
ledger
opposes
moments
smoked
basketball
karl
positioned
attested
222
honesty
lat
abrogate
chat
frozen
packing
cultural
converting
adduce
narrower
nonjury
ef
285
div
rigorous
resolutions
isaac
alienation
510
elk
consenting
cessation
##sha
singer
domiciled
##bin
copeland
envisioned
308
##ware
forbearance
anal
borders
288
negotiable
shaft
vigorous
mentions
joel
##ila
stemmed
cos
esp
unavoidable
ml
alcoholism
1937
dic
expanding
overwhelmingly
ras
furnace
padilla
defrauded
##quist
equality
pt
hollow
staffing
##rd
197
resting
blocking
deb
##eve
hable
##lum
incurring
cardinal
swanson
recurso
busy
concessions
flying
dimensions
##uel
taxicab
tila
sion
patch
mol
sharply
##nning
deteriorated
intercepted
habit
fibers
pos
sorry
postpone
conceive
##46
mangano
eaja
winston
france
##sl
287
induction
proposing
collusion
mocion
##ced
whoever
embrace
simons
##cap
cape
sparks
##ovich
assignor
horizon
capabilities
##lv
ard
policyholder
priest
1940
##cd
mathis
tariffs
magazines
thank
jeans
##gin
gsa
writer
burdened
##old
insider
infraction
firemen
subscription
##ott
holidays
obscenity
briggs
##ardi
theoretical
303
lateral
benefitted
punched
enumerations
mah
firefighter
1942
atlas
enlarge
abolish
##hin
sweeping
##log
fatigue
santucci
grid
gor
preferences
##ire
florence
technicians
##bt
weekends
nude
demanda
disposable
british
##azzarelli
openly
mate
lessors
melissa
compounds
rodney
marketplace
##hon
lea
disposes
dignity
##demas
boa
bauer
mcbride
214
##alo
##hu
alford
lowered
apt
##mus
concise
detainees
##ibility
pizza
dilemma
studied
servants
pile
alt
##talling
misc
vander
antes
louise
##eco
glad
pros
india
##ification
boykin
bran
cms
lehman
##iano
##link
motivat
disclaimed
continuances
mit
ost
jimenez
bap
eo
burglar
encourages
lighter
##een
relayed
fires
inappropriately
picking
dilatory
nrc
registrant
775
158
classify
thrift
##tos
starr
dos
leroy
contrato
niece
slept
misstatements
conferring
##ture
explored
306
##ami
245
restate
translation
cion
septic
##dot
dresser
jessica
##ncia
inventor
rita
endangerment
bailiff
nonre
##zar
gateway
mechanisms
lau
disappeared
020
216
naturalization
electoral
stephanie
florio
262
worded
presumes
174
adultery
cafe
##state
##can
blakely
311
variances
jaw
maneuver
termino
improbable
##corp
otis
broadcasting
composite
vendee
cualquier
dayton
mom
193
enlarged
##ego
unfettered
357
ounce
##bm
indus
nolan
slowly
collapsed
ignition
kyle
fela
browning
grading
imperative
strained
cna
landry
mj
nonparty
troubling
unlocked
alpha
nicole
##sby
companions
nice
265
indebted
acquit
wyatt
heater
##ios
encumbered
##eta
##rre
credence
milwaukee
trivial
159
impressions
keystone
guise
injected
##pping
laborers
deliberative
distant
##bon
superiors
allocat
wave
annul
##pper
opted
gao
thwart
payor
##enstein
locating
electro
savage
reproduction
251
geico
comfortable
comprise
fractured
lent
decade
carriage
blum
ella
lessen
##los
unsubstantiated
circulated
developmental
##fel
satellite
extrajudicial
307
stall
##nar
lightly
257
jer
protested
hybrid
shipowner
heath
##ikoll
##lu
corridor
summaries
dip
obstructing
concomitant
killer
till
237
189
decker
218
252
farmland
##gram
suitability
gaines
coerce
commands
numerical
##zen
anticompetitive
indifferent
evasive
stratton
##kh
debit
primera
##ened
morse
dy
larsen
lugar
benchmark
varies
sport
hoff
divert
bos
doorway
necessitate
cel
mendez
saxe
downstairs
227
neuro
cope
impractical
fmc
succeeding
echo
obstructed
comer
costa
impute
northbound
kahn
413
pains
obligate
diagram
##jc
conspiring
##sy
fca
poles
333
##vent
prepetition
guiding
forecast
donation
mou
woodward
eating
sealing
update
##ivity
endangering
##pf
misdemeanors
adjusting
zones
disallowance
highlighted
504
##ction
luc
suffices
##lick
nearest
gui
morrow
##not
coins
encumbrances
coverages
britt
postponement
hauling
paula
undesirable
abraham
##cco
sk
conf
moses
undercut
indulge
annex
fun
indianapolis
confines
##ome
gore
kick
frontage
consensus
abusing
careless
cop
dial
proponents
unearned
actors
pena
insulate
trench
gleaned
anomalous
actuarial
attenuated
##ssa
drafters
detector
peaceful
221
sequestration
cardona
altman
removable
essex
dtpa
spec
renovation
creative
##rock
escorted
##lot
fmha
slide
##anti
vega
vas
pc
warm
fat
differentiate
divested
mccullough
accomplices
lec
riverside
reaffirm
casting
publisher
copyrighted
rat
arrow
abdomen
appended
wilkinson
commentators
odc
rub
##aver
chiropractor
triple
southbound
regents
dias
tennis
pu
##oh
lapsed
shepherd
recur
dcfs
conciliation
laboratories
unanimity
promulgation
dal
jcc
ellerin
##elson
reconciled
1944
raid
generous
annulled
skinner
standby
hardin
##iner
quest
412
ingress
encompassing
##oid
##uo
035
172
sean
rack
adjudications
interrelated
flashlight
##lea
credentials
##oi
vargas
courier
traced
caveat
420
interprets
232
categorically
omni
glasses
teresa
schi
guzman
pollutants
##rra
##bit
dnr
merritt
loop
lid
aggressor
intolerable
justifications
vitiate
stacking
##rom
chiropractic
##ood
makers
407
perpetrators
mover
##gl
implausible
reprinted
fen
eviden
##sler
mir
unusually
##dg
tracking
repudiation
conrail
217
smiths
asociado
caretaker
wanting
herrera
downs
closest
hin
separating
janice
mckee
fle
chad
reconsidered
1930
##gler
inadequately
devote
visitor
##wr
cv
nuestra
encroachment
mers
ricky
usda
ret
footing
worry
##eal
progressed
##rine
##ological
475
cumberland
whitney
denise
correspond
ships
bribe
ita
locality
doris
mckenzie
myriad
dosage
graduated
ounces
destroying
##chen
##uro
sido
herring
##are
wreck
480
cum
recurring
pink
truthfully
wards
clubs
entails
haas
conspiracies
piecemeal
suicidal
rounds
pleasant
##ments
painful
passport
laurel
dawn
prob
stare
traverse
brutal
zurich
penalize
wang
226
cds
solvent
##rk
##til
##top
plausibly
sioux
shores
uns
uno
cad
001
illusory
jen
238
minorities
colo
pause
bankr
deducting
236
nm
bender
ranking
furnishes
cherokee
hugh
repossession
sink
needle
##ao
tanner
breaching
mcm
##mal
healing
regain
shah
241
198
uncorroborated
slips
spotted
##tta
sawyer
321
##mate
##und
foresee
accusatory
valuing
uc
bod
lori
criminality
safeco
culture
franchisee
output
bien
clip
rash
ov
rab
312
mala
cone
embarrassment
##auer
medi
rum
paving
ej
hutchinson
wastes
615
bible
refunded
050
hey
lifestyle
technologies
##mine
##pco
219
overton
aero
allotted
casos
##bri
feeding
harrell
sidewalks
sprint
logo
avenues
inland
nullify
explanatory
trump
wilkins
shelf
estos
eu
rex
sensible
secular
231
hanna
effecting
specialists
spr
eliminates
poorly
##wer
cri
ness
arena
misappropriated
minister
cm
torn
stairway
##epa
retaliated
##df
illustrative
harding
blackburn
##ici
foremost
offshore
rosenberger
boiler
understandably
##qua
540
drives
fry
singular
commences
incentives
candid
bivens
katherine
oxford
gri
tammy
conc
##ahan
tee
##pac
fiduciaries
unsupervised
vacancies
sane
countered
lex
##roy
fractures
dissimilar
nolle
##minating
usps
##sisting
buttocks
cpa
diagnose
volkswagen
stafford
partiality
caps
pharmaceutical
nonexistent
stalking
maurice
definitively
eva
priorities
##mac
##etz
nicholson
184
##mers
goss
intrinsic
rot
ave
mend
##via
pic
jeopardize
##ega
233
safeway
enables
##zu
pfeifer
wiggins
logging
vegas
rocks
##rod
173
multiplied
remuneration
subcommittee
weighted
russo
guides
feasor
hays
survives
##print
candor
converse
phrased
measurements
transferor
279
bonnie
224
eb
sloan
cannabis
ingredients
199
detached
322
extinguish
##rig
dillard
vance
179
##mulating
196
##cca
##rade
crediting
##ciones
philosophy
pont
treatise
improvidently
hopes
lance
##etter
##cott
paranoid
##ptly
243
fare
duffy
preempts
otro
enormous
riparian
leach
gunpoint
esquire
liberties
610
proscription
conley
enriched
detract
253
unrealistic
mclean
crews
interpretive
##ima
regularity
arbitrable
194
invade
appliances
abundantly
batt
##pan
restricts
advantageous
predator
##ming
oakland
struggled
lodging
nonfrivolous
registrar
expungement
andrias
commanding
morals
##sign
impugn
intercept
perfection
cared
evidencia
##wh
bolstered
296
blackwell
248
coworkers
embargo
##wald
forget
charts
catalog
dentist
fulfilling
##rf
importer
diagnoses
audience
goodyear
##sf
eon
accomplishment
uncon
##conscionability
fro
semen
##rill
hew
saf
mines
breasts
mathews
tas
realities
lum
bog
deeply
liquidate
curriculum
##awich
mora
assailants
footage
laborer
winters
##mh
625
hang
dentiary
dramatically
concerted
tenuous
ei
unwillingness
reinstat
prematurely
colonel
##iro
departing
resolves
roland
##ates
threatens
lever
##ely
roadblock
perjured
slightest
cw
##rse
portable
##tom
valuations
transcription
##matic
advocated
gallons
marilyn
dilution
undergone
string
wallach
1935
coating
390
##sar
sounded
refresh
capture
microsoft
roommate
mov
peck
assoc
crosby
observer
fist
conducts
futility
impracticable
remarried
jurists
depositor
occ
rap
gallon
intensity
deferral
greenberg
dickson
meadows
matrix
salient
kline
cecil
grandparent
flashing
distinctly
compute
faulkner
##gui
##zell
deported
##ets
##oo
authoritative
abrogated
anders
unsound
burch
painted
dose
hawk
falcon
alongside
##idas
promotes
##titu
alluded
lethal
extraction
rings
luna
surgeries
resnick
leaders
adm
displays
cireumstances
penalized
delegates
abdominal
exposing
##vc
artery
adapted
355
paved
burr
remotely
allocution
unaffected
mattress
survivors
underwear
sanford
stephenson
pressing
moratorium
predisposition
kupferma
burial
calvin
##ged
advertise
##xi
##nation
##shed
mcmillan
pumps
pennington
saint
narrowed
spell
hodge
bolt
##reclassification
bullock
burg
overlook
ris
dig
##sol
rehabilitate
mesa
tambien
tem
tiary
##eff
colleague
brochure
mood
offeror
teaches
highland
acusado
unused
wireless
demandante
thinks
thread
proctor
366
##dad
farrell
videos
deere
ranger
exert
subtle
boyer
zip
initio
sandoval
##ink
hazel
frames
vs
sab
324
411
mentioning
unsigned
##uer
##nu
##aya
delineate
hyper
ranges
situs
rh
noncustodial
flex
apprehend
##izer
deviated
sampling
valdez
mueller
paralegal
##aka
exerted
negatively
##ique
relacion
dahl
prescribes
button
donovan
inescapable
afoul
garrison
expects
nie
hell
acquires
##nia
##avi
gabriel
gilmore
chased
reactions
heather
##comp
unchallenged
arlington
stigma
outlet
pressures
278
forrest
wong
##ats
desir
audits
discontinuance
jurisprudential
ptsd
southwestern
duck
rios
richter
##tus
csc
slab
fslic
egan
dragged
envelopes
invokes
jam
##sur
##set
matrimonial
semester
undeveloped
andersen
hesitate
lav
242
penny
##loc
contemporary
refinancing
271
##ump
dps
metals
tenured
reporters
congestion
gestae
usaa
sureties
informs
##insky
gir
terrorist
lott
##mt
##lier
cuanto
yale
gail
farther
sits
immunities
disappearance
jesus
indicator
boom
arbitrability
noteworthy
premier
avery
walkway
##elo
cuff
knives
ingredient
rac
boo
eck
sheppard
imperial
##ked
##eter
##osh
223
juicio
##lied
culminated
salem
##lene
regulates
249
interferes
mullins
salazar
##tiva
ney
stru
dimension
washing
coherent
rochester
reformed
collar
bach
##hoe
coca
mcdermott
articulation
diameter
178
sherry
forbid
listened
ocs
exhibition
gur
shawn
mitigated
anton
teamsters
sniff
overlapping
amici
##ural
unity
reap
chartered
##holder
instituting
strategies
dave
swing
plays
710
groundless
condone
muster
impasse
junta
enlisted
##tler
##kas
hotels
##oria
rescheduled
piper
surrounded
ent
aider
eh
token
##onic
lac
commonality
##uss
undergoing
backyard
parkway
unfamiliar
evolved
hertz
418
leaks
oldest
mau
grazing
nardelli
workmanship
mosley
contravene
roach
313
versa
prof
disproportionat
667
justin
##hman
##ender
orphans
tortured
##ova
560
phones
omit
caljic
targets
solve
effectuated
##lich
wax
minneapolis
misses
##ema
authors
##ort
tolerance
##ders
##onia
probe
##tre
subordinated
diem
bayou
maximize
335
vez
encounters
towed
hooper
##imo
investing
hurst
fr
505
attacker
mcneil
oldsmobile
desirability
pca
gh
firestone
##fall
equivalents
##ologist
##lund
evasion
liquidating
baum
casing
experimental
sj
furnishings
##post
reinforced
sys
950
posits
##owitz
steward
servs
rag
hereinabove
525
resentenced
mastro
allotment
rectify
##ple
fitting
309
windshield
boe
247
confronting
sheila
##osis
ads
##ml
602
redetermination
piercing
sustains
rib
lion
poole
sav
bud
wedding
bernstein
fs
cav
##gua
hid
415
295
##uter
predicted
hab
foreclosing
relitigation
helps
specifics
unfitness
##fect
advocates
rising
recital
malfunction
abetted
emerson
##rado
lund
silverman
prompting
redundant
thigh
##iza
351
conveyor
governors
mead
stresses
grip
trustworthy
renting
unintentional
virtual
encumbrance
deviations
controversia
magic
schizophrenia
grasp
##dler
gru
alvin
##clu
hardships
cuestion
sidney
clyde
unclean
paris
cove
rfp
bonded
diocese
conrad
ryder
theresa
281
pupils
rival
duff
delito
estaba
setback
cgl
knocking
schroeder
provident
admin
elective
legislatively
relocated
congregation
notarized
tjhere
##imi
slapp
##ener
pill
orlando
nominee
##emos
lad
fm
unloaded
escort
detainee
dirty
hb
5000
disallowing
##testing
visibility
addict
##anza
gratuitous
instructor
coke
probated
litig
wilmington
klo
261
tun
##aco
holly
kaye
unmistakable
japanese
341
pla
excusing
disbelieve
flaws
radar
rie
##vol
nap
purge
disallow
designee
##pre
##ulate
##ika
hyde
embodiment
multiplier
theodore
wiring
768
messrs
256
bystander
concentrate
uncommon
evelyn
##iers
decisionmaking
502
insubordination
repeating
ust
coordinated
intervals
supremacy
tva
##oon
273
##singer
hebert
efficiently
clifton
abiding
graphic
inhibit
pipelines
traceable
worsened
##lad
##iman
hara
expeditiously
existent
254
##lat
boots
recon
ramifications
##ledge
436
244
underwood
##ehl
psa
humphrey
370
peripheral
aurora
wilcox
234
tradition
boot
urgent
##otti
equi
counterpart
stereo
##meier
finley
norm
pleader
rug
lens
##gres
referrals
lends
molina
317
beaver
ceases
emission
delgado
disk
employe
nashville
tes
##lia
subclass
neurologist
inactive
ensures
##fp
invaded
bailee
volumes
precondition
pools
dissented
avoids
newark
assaulting
internally
headlights
##ht
corollary
inconsequential
framing
proceso
rog
inherited
272
##ones
1936
culvert
##ified
##jer
destructive
pero
fecha
fashioned
##aire
##rel
gam
##iver
bland
sweat
##vic
intermittent
abogado
pulse
##its
removes
314
##1
exacerbated
molested
##9
flagrant
incidentally
faxed
##iere
cb
eastbound
guys
relaxed
pumping
beech
##hol
lc
fumes
##smith
##gr
dwellings
wis
unethical
buried
readiness
surge
pala
perpetration
jurisdiccion
##tell
exiting
##bal
technological
oscar
experiment
prominent
ud
salaried
roberson
##ppel
bowl
fiction
fol
cull
respected
ye
##ati
misbehavior
omitting
rachel
##san
spelled
##lec
rankin
503
sues
deserves
estimation
pago
diana
sympathetic
genesis
scaffold
##ifies
imperfect
##lio
reception
melton
pueblo
abortions
artificially
locks
assistants
bc
##inter
il
rabin
490
peggy
voltage
slate
packets
extracted
bun
dalton
heated
approves
deliberating
nissan
##hard
whistle
teams
hypertension
movable
##sal
stationary
nes
228
cane
maldonado
894
drum
##cial
meaningfully
pap
slaughter
dekalb
immovable
bartender
##char
fold
##uli
520
hopper
##cur
tired
www
winner
disputing
fountain
multiply
finalized
nunez
burglarized
uniformed
quarry
countrywide
markedly
gale
theatre
bumper
cutter
gau
bean
quien
1500
fil
dischargeable
greenwood
cbs
bending
aesthetic
reproduced
chicken
##reg
incriminate
compilation
emanating
ignorant
referencing
601
hydraulic
decisis
##utt
packaged
##eng
##wind
xiii
337
mutuality
vietnam
edgar
##unt
rite
shootings
loved
buffer
tsa
donaldson
##bur
publico
propiedad
refrigerator
ple
##tee
hog
nail
pupil
fran
oaks
##isidentification
stationed
pierre
##vailed
reno
broussard
vogel
430
shocking
affordable
##ust
electorate
455
spears
broadway
##ulation
unmarried
fab
repudiated
##rian
##ancy
allan
##col
cau
negat
figueroa
commingled
lengths
theoretically
giles
hygiene
psychology
##tp
everyday
fy
judgement
deco
sliding
gunshots
##ators
hernia
##phone
stevedore
numbness
invalidating
displaced
balloon
277
supersede
##ander
##tur
atkinson
kel
fortuitous
266
rosario
cher
##luego
monsanto
pha
whitehead
318
stays
hac
poison
##boro
##tine
##gal
##wo
sack
harlan
229
marathon
tulsa
coalition
pell
marking
##zan
323
##anda
qualities
pcp
##gren
stadium
proportional
unum
xii
##cos
##ulated
palpabl
variables
accelerate
rosenberg
revive
underlie
##sher
psycho
facilitating
jewish
abroad
editorial
kidney
bloody
loving
scant
282
theater
hurdle
appreciated
##idi
unmarked
obscure
salmon
409
hayden
emp
siren
covington
##ffe
downstream
fc
minded
frankly
practitioners
utter
glo
tina
tit
eli
disaster
huffman
nisi
absorb
246
mfg
indisputably
baird
##lg
convincingly
asthma
summarizing
rollins
maple
##rone
butt
cue
consummation
##tv
seasonal
seattle
nix
paroled
cameras
carro
banco
wachovia
268
bones
##mie
roller
swi
##ear
blows
mcfadden
revocable
undertakes
comprises
workforce
afterward
grey
counseled
kendall
hastings
##unk
abettor
stu
thor
steady
hinges
pul
cows
gem
supermarket
opine
climbing
##ugh
finch
263
perimeter
pfizer
storing
##lant
bruno
##ace
necessitat
rocky
toledo
westbound
otra
salesmen
siegel
forfeitures
transamerica
usurious
dramatic
antenna
terrell
posttrial
tablets
yields
atrocious
mckay
fendant
sided
lyon
abandoning
wmata
quorum
kicking
borg
scenarios
marketable
predatory
331
bucket
plymouth
mspb
civic
alma
andrea
alguna
buys
uncover
##cock
##rma
chap
inflicting
rises
dispensing
worldwide
editor
kraft
brass
awakened
gla
283
gibbons
##idos
accords
carpal
chan
badge
smooth
interactions
shane
disparities
##kan
curious
##right
##hou
mes
388
correlation
##tia
invidious
beers
ripeness
condemnor
ours
cps
derogation
seldom
prepaid
cage
concord
buses
interchange
subjectively
##tric
bam
jacobson
wichita
shreveport
grill
##act
mcgin
initials
reliev
substandard
briefcase
327
703
##leg
kell
bizarre
enhancing
ortega
ments
originating
##ille
demo
##own
homeless
tumor
##sin
serviced
wilkerson
##itch
##aker
##qu
seizing
voices
ernst
nlra
wounded
olsen
tec
##wall
352
unto
720
acknowledgement
petr
incidence
embody
notations
validation
obligee
scrutinized
conformed
interrupt
530
unsuitable
mono
dismissals
arranging
compensating
284
##iello
##zza
reich
equated
pivotal
##stead
meridian
cindy
legacy
vacatur
links
fedex
##zz
##isco
inject
##ddy
whistleblower
tremendous
mayer
discernible
dying
##vie
odom
##aciones
ott
posts
counselors
bacon
twa
mismanagement
insurable
stanford
mast
surplusage
razon
productivity
vicious
excuses
406
fig
lsd
elaborated
haley
##bas
archer
bruton
##tation
captured
pensions
##lip
wad
wig
compa
troublesome
swore
frightened
explosive
insufficiently
386
replevin
conservatorship
dubious
ox
274
##ono
##ening
humiliation
sequential
stripped
##run
angelo
enlargement
canyon
bj
churches
particles
landscape
suspensions
braun
trim
sip
dissolving
yacht
dentro
##pra
engel
##oun
gradually
##bia
##cept
freedman
pir
planted
upcoming
##cci
heck
perpetual
##fed
circumscribed
auditors
endorsements
mak
ronnie
cloth
preside
cac
##sia
byrne
carmen
mh
boycott
298
##vell
rin
##adi
strengthen
aig
mower
judging
ruby
sheridan
435
364
452
jac
rud
mcconnell
battered
insertion
361
##ista
misunderstood
gee
shells
mccl
script
infirm
adapt
lev
319
disgorgement
succinctly
dozen
equals
267
chu
cus
rehear
teague
borden
reargue
voided
recordation
whiskey
macdonald
##illi
trespassing
fec
receivables
sprinkler
fashioning
##oll
facsimile
smuggling
cooley
bta
##toria
screw
gaining
##oth
spd
voyage
ade
framers
##phy
pitch
fog
invitees
illustration
canine
416
nationality
##bus
tooth
contributori
aisle
exploit
##ement
258
fragment
tray
##chem
##jan
chairperson
lasalle
norms
conveys
pedestrians
specimen
scarce
immigrant
anchorage
triggers
hong
##ivo
nw
collections
thick
tragic
platt
sandy
courtesy
tripped
##tzer
##zio
gregg
plug
brent
sher
letting
##une
inspecting
construes
topics
baseless
domiciliary
swearing
arb
mach
contours
##ows
genitals
curtail
telephonic
mailbox
##ched
tactic
shaffer
mercedes
##ori
huntington
roche
infractions
coincide
defen
##py
efecto
mccar
nights
rightfully
##ase
aide
arco
impounded
wan
##imos
kr
mcdowell
unintended
bluff
pawn
fws
knapp
standardized
parrish
valle
launch
##sk
##jar
expires
swiss
entireties
cep
habits
facilitated
291
newport
bitch
graduation
societal
julio
safer
formalities
decedents
assessors
thief
pru
studio
valentine
llp
deutsche
lungs
cj
abs
297
vegetation
rosenthal
coronary
electronically
##ibly
whalen
minimally
nd
cdc
surprisingly
uniquely
flor
infringer
borderline
##hood
contradicting
symbol
overpayments
vending
ir
294
264
whitaker
##mina
worksheet
foil
##ean
239
audited
subrogated
latham
pellees
sawed
encouragement
segments
shake
dill
hendricks
##dra
doug
286
mcclain
treaties
garland
336
345
retried
cline
videotapes
liquidator
##kar
pathology
shorts
novelty
solar
##enta
youngest
connie
encumber
cruise
worship
kroger
unsure
vivos
charlie
waist
rebutting
zan
derogatory
krausman
tea
spare
boeing
indigency
predetermined
overseas
730
fusion
ell
##vas
deceived
disjunctive
cambridge
contrasted
gonna
contributes
tc
examines
casings
##tf
chilling
276
anesthesia
unsettled
##amiento
414
falsehood
pam
starts
bolton
abated
pronged
wendy
##doc
deletion
##rri
clearer
##ingham
##rec
##ardo
superi
fortune
sti
##ku
underwriter
ratios
materia
candy
485
dence
thorn
antagonistic
putnam
arbitral
misrepresent
##uto
surfaces
cada
polymer
surname
##haus
fate
incest
belies
meadow
beauty
csx
dm
##alia
classifying
deserve
boarding
descendants
##stro
##0
040
advisable
dickinson
overreaching
derrick
##tino
franchisees
##hes
mb
validate
fpc
##dict
inconvenient
lois
remission
##ered
##apa
liu
hoy
bipolar
franchisor
noneconomic
poverty
##nen
tac
virus
usable
middleton
##eed
rebate
reconstruct
canons
appreciable
redistricting
rewrite
compressor
##book
gaps
scudder
critically
##iden
##ball
gum
badly
drilled
irene
camper
christensen
unopposed
##gie
discriminating
mug
bentley
fulfillment
pride
poe
bike
casts
reh
subordinates
confiscated
abduction
constable
##hurst
hester
py
jacksonville
508
dropping
loads
##cast
pronouncements
colony
##ifi
admonish
pediatric
sinclair
draper
##bill
boh
421
627
duran
accessories
gillespie
utmost
dudley
dependence
hickman
##hall
bulge
cog
wie
controversial
loft
bailment
nonmarital
felix
madden
tampa
franchises
##aine
weis
strongest
##ional
fel
uncomfortable
khan
lasting
markings
rotation
dispone
cris
sincere
565
mcfarland
stoppage
dormant
demoted
##sson
259
distances
hamm
infringes
sketch
exertion
465
##try
candidly
recurrence
guidry
##hel
killings
cen
layman
climb
sap
pornographic
forecloses
daly
jamie
ee
summonses
junk
##rino
agri
lindsay
pneumoconiosis
unrecorded
familial
##fg
stanton
gant
lesion
defaulting
promising
muslim
incremental
consume
##atch
sticker
529
cosmetic
bristol
reglamento
leblanc
informally
tubes
quota
353
##kow
jackie
##lit
forwarding
offended
dart
scream
vande
sampson
sunset
515
friendship
laser
freed
fay
marin
gesture
mcintyre
roots
glance
##dorf
269
##has
hedge
mcla
##htinen
invariably
coworker
pharmacist
##hor
pitt
whi
woke
##nch
cwa
299
disfigurement
unstable
##inder
julian
##ectomy
##eno
negroes
deeded
authentic
##gio
pate
thirteenth
pasture
strenuously
optical
pugh
discredited
denton
expulsion
necessities
cigna
consignee
backpay
durante
matured
shops
upgrade
leaking
##isa
greyhound
simms
bray
hod
helm
overview
bump
oppression
grievant
tolerated
##tens
##lik
lips
tub
inhabitants
dcs
mcke
reexamination
unregistered
deficits
termite
##ines
barely
especial
mari
burk
hc
swallow
subtracted
strand
vault
##awa
architects
declar
buch
##vor
determinable
##akis
splitting
progression
berman
depo
##uce
conspicuous
cio
xerox
##lco
##ejo
beacon
mustang
personalty
stump
gorman
travelling
chips
392
sunshine
honeywell
supplements
##heimer
hepatitis
pamphlet
rosenblatt
fought
welcome
iran
opponents
fnb
fas
fea
tres
furlough
mcintosh
prognosis
unrebutted
shadow
agenda
elaine
##lson
##ress
flowed
##vio
dx
ineligibility
slippery
shirts
hallmark
rightful
solicitud
tenor
##lers
##ected
debentures
##part
##stock
effluent
nuestro
ceqa
ferry
sensation
##gers
song
##isha
mediator
##chel
braz
pruitt
memories
salesperson
keene
retry
##activ
##rup
##ides
couples
##lite
##max
##cum
##iak
deponent
289
293
impeded
peers
hahn
schm
scrutinize
openings
combs
determinacion
##roll
##tha
801
depraved
fitzpatrick
overdue
riggs
kw
momento
haw
482
egg
1932
pearce
ng
##tb
assocs
compliant
bookkeeper
##bat
crook
textual
provoked
##bler
cliff
desert
mcco
harden
dug
wat
portray
settings
##tier
##eas
vil
mildred
companionship
##lman
395
septa
usurp
dmv
polling
eliciting
##shi
ling
repugnant
unliquidated
preemptive
cavity
repossessed
louisville
570
nut
flip
##west
kat
580
abrams
lockheed
terminable
claude
tide
hos
dib
fuentes
gunn
516
switching
corr
alvarado
kingdom
gentry
salvador
cip
cic
vapor
certifications
ourt
accessed
anymore
transact
640
abundance
adjudicative
hirsch
tj
misstated
sands
691
##lands
excludable
phyllis
broward
##oney
kessler
debbie
riddle
##kill
clothed
furthered
recused
bot
541
catalyst
328
noncon
wein
universally
suv
##ieron
tread
surmise
##sum
##fic
unconditionally
ariz
intruder
385
disadvantaged
mec
futures
backing
modifies
resin
##uni
##pon
lon
neurosurgeon
sensitivity
subsumed
courtney
stre
twelfth
southeastern
reprimanded
tongue
christina
kc
dee
concentrated
quid
locus
##iker
bick
ewing
tolerate
booklet
kidd
notebook
electronics
bout
##omer
##hee
retiree
dredging
ascribed
goff
elude
disfavored
willard
couched
formality
##gt
##pha
rockwell
##arian
##tm
willingly
chronology
expedition
butcher
##flat
ime
##udge
fink
unforeseeable
##ecker
wolff
hutton
gym
tsus
insulated
ems
temp
thwarted
362
##igh
shaking
beatty
disseminated
##sg
##rated
bl
##hey
payton
levi
overdraft
slowed
excessiveness
bedford
boehm
rehabilitated
hus
proc
methodist
507
hasta
recruit
weaknesses
acs
leap
comision
##ame
##ude
339
misapplication
ancient
generator
manufactures
obstacles
trains
532
contingencies
partisan
playground
##bie
ulcer
##uma
crashed
procede
zar
mcca
donnelly
merchantability
##ahn
##nr
##sive
discouraged
stove
comparisons
bethlehem
419
##late
kara
np
##gart
locomotive
subsidies
##rz
temper
##eous
495
##pri
elevate
handler
##wu
julia
museum
refinery
tenia
parade
defeats
designations
baseline
millers
lia
sphere
barb
445
centra
acquisitions
fairfield
mario
##nier
##tten
ncaa
##fb
reorganized
downey
graft
invites
080
bau
nasd
leventhal
fannie
foam
mullen
cmr
disregards
mccann
dodd
baggage
candidacy
mcclure
annulment
shan
##orio
displaying
doerr
walden
projection
prolong
eldridge
jeremy
##gia
shar
lara
educated
behaviors
tack
robbing
381
shortcomings
organize
kap
psychologists
660
##odi
mcmahon
unconvincing
plywood
pues
conformance
334
bundle
subscribe
commissioned
##tol
barney
hun
obligacion
belts
networks
urinalysis
accusing
prize
transmitting
1925
stacy
##ois
eff
races
pete
705
functionally
http
unanswered
##ige
473
gaf
kla
narrowing
##lton
##tag
##eda
vindictiveness
revelation
schwe
falsified
worried
forbidding
penetrated
grandson
broom
pretenses
##cing
relax
802
bartlett
realistically
banker
384
gunman
cooking
680
##uso
dish
occupations
dougherty
nf
cousins
##tree
466
faded
725
monica
expressive
quashing
booked
replies
complicity
trespasser
cis
ak
##staff
prediction
wanda
swap
##ogram
howe
uninterrupted
mcgrath
grun
dispensed
backpack
##atis
panic
oar
##press
unwise
##fil
dj
##iness
##media
338
burt
##nett
ears
guaranties
yesterday
arid
hurley
overstated
razor
ler
sb
447
subvert
##ady
611
blanche
##psc
##eller
climbed
dod
dowd
##nard
webber
hensley
ferrell
perb
potts
##ern
entailed
painter
minimized
felons
boc
mcgowan
trabajo
dunlap
organizing
lowery
loader
fein
mobility
1931
##vest
resentence
##ition
##iler
intoxilyzer
bookkeeping
scalia
##sworth
powerless
chang
desc
realtor
deadlocked
770
hoe
blades
lib
imper
omits
advisors
##pher
##mack
icwa
menor
marlow
##mpa
frontier
weston
reis
otros
grantors
banner
towel
proposito
barges
ransom
##ttle
todos
csa
##itude
terminals
hack
442
608
gcr
leary
##quin
rightly
##eli
pj
empirical
lascivious
postpetition
cohabitation
scattered
inhuman
michel
unborn
cylinder
stead
forbes
##ners
vires
##ieri
##chman
brett
denman
605
ellison
##sec
elaboration
mistreatment
granite
cave
terra
iraq
donations
vitality
##gm
hans
relay
xx
lag
rah
##bling
##pas
##cas
colleges
##utz
combining
niagara
hou
noel
1100
embraces
363
nem
plains
shoplifting
dynamics
kee
394
##gro
dant
##nne
clemency
crowley
##ull
kur
##lac
necessitates
pedro
##asso
laptop
344
bonner
##esco
expedient
weakened
merc
commentator
interes
attitudes
finn
##ogen
gardens
predate
cca
growers
copyrights
prc
##puesta
##vs
luck
##zon
trusted
belle
rc
emb
##gre
amortization
relitigating
preserves
excessively
immunized
depositing
manuals
sperm
exigency
anxious
sleeve
punishing
bunch
completeness
##oyer
##019
##lies
fences
barron
annuities
brunswick
sanitation
emma
431
##omo
##iera
lawfulness
##conventional
restoring
contemplating
forehead
erratic
distributorship
hague
fixture
luba
603
sail
hmo
mcrae
hous
sheer
##pond
exempts
##hra
weaken
690
swear
landscaping
roosevelt
sacramento
compos
recantation
brands
pud
farley
str
evan
melendez
unseaworthiness
fahey
##cla
harwood
382
atf
##rer
barrels
kathryn
camden
evict
recidivism
guerrero
quantitative
##cw
329
mcgill
##rar
initialed
inherit
caterpillar
unresponsive
jamaica
sprain
cooling
linn
sig
leb
##rid
larkin
kong
equip
journey
persecuted
accredited
gab
##olu
shook
nal
conforms
##cks
postage
##cam
##unc
tig
resell
verifying
423
unsolicited
##nat
intern
font
lean
superficial
poisoning
373
unforeseen
whitfield
##oud
scored
averment
foul
manipulate
rutherford
sterilization
delicate
foreperson
620
cornell
remodeling
nis
060
russ
##agh
mata
liber
343
surgeons
prone
nbc
dispel
##lap
emc
##boat
ports
alias
##etto
catheter
mercantile
windsor
mik
##rington
mellon
adher
332
fru
printer
##ures
anticipatory
multiplicity
titone
fluor
lei
thefts
##fac
2017
praecipe
bachelor
interchangeably
instantly
buttressed
bragg
uttered
rouse
##bound
706
mic
##cord
552
ogden
lime
galloway
417
397
##aut
371
exempting
profitability
dio
proportions
675
engle
electrician
dialogue
vandalism
aplt
computations
aggravator
palpable
popp
##sett
emit
crawl
##duct
575
depletion
wedlock
trata
recruitment
pry
##ske
terri
##rough
compression
blast
##ote
##wl
##uta
##list
viola
memorialized
insult
wynn
dominguez
flint
highlights
##ision
hum
licensure
unclaimed
inexcusable
mccarty
porque
recanted
422
##fm
strap
##uy
##mire
peabody
tiffany
crouch
gut
bingo
##pert
questionnaires
##ify
kop
carpine
halfway
leaning
cai
locking
rou
cowan
commanded
hooks
chesapeake
prothonotary
behest
estimating
vir
##ppa
speakers
##ecu
sten
704
intimidate
cobra
urgency
vantage
tha
chaney
##worthiness
trout
deci
disadvantages
celebra
advises
tional
outrage
posing
##fore
372
##ush
jumping
til
chains
maynard
flights
fork
flew
animosity
030
frey
##enda
##cin
switched
watershed
float
constitu
376
economics
weiner
bayer
ceremony
inconceivable
overpaid
kimball
munoz
##his
werner
mcf
cram
woodard
fallon
vic
beau
agitated
intimidating
mcleod
424
abnormality
desde
##abel
441
lef
slides
prest
relitigate
##stand
lyn
authentication
shielded
criminals
compton
444
mace
gloss
##vit
##dine
milli
670
ug
sensor
fabricate
unprotected
reverend
friction
iad
benz
illnesses
##hner
verb
invalidation
vale
sino
revert
valves
adhesion
aforethought
reprisal
unjustifiable
shortfall
bmw
recurrente
decisionmaker
##rest
textile
##pet
kea
##cat
compensability
crist
1929
511
##strumentalities
##lop
##nh
estes
ivy
tries
fortiori
sykes
tribunals
butts
##rant
##fu
stout
ttd
revis
wholesalers
bak
persuasively
hawaiian
481
eg
##dre
approvals
hav
ribs
shank
leaf
tucson
impairs
dancing
sally
toys
##zie
ratepayers
acca
kri
kiss
##ago
federation
##lus
populations
streams
367
berk
tillman
471
strangers
backdrop
pbgc
inordinate
lundberg
sexton
617
reverses
1927
demurrers
##dem
chronological
prairie
stabilization
sid
beef
##bp
##600
busch
mars
blanchard
cata
##ovitz
rooker
##sweeny
dif
injections
implements
professionally
rei
occupies
mcmurray
mei
##izes
##walt
donde
alta
spence
welsh
391
caregiver
347
##500
356
severable
517
ff
##ares
fender
henson
appurtenant
cafeteria
##lone
mdl
##cma
wooded
sponsors
nav
396
707
idle
accumulate
##pps
cartons
parr
##imer
pulaski
ventilation
janitor
entrustment
curtailment
explosives
cran
manifests
bruising
unhappy
displace
aims
##tica
console
##ime
nac
legislate
auditing
##bey
moisture
rhonda
mw
##uga
massage
darrell
rm
##shore
nell
accomplishing
crum
thoughtful
impartially
506
##serv
##onne
plow
##tim
##ores
boise
contr
hinton
383
fsa
prather
evergreen
##cel
esop
pee
nondis
bucks
foundational
##ador
##lane
latch
jewel
377
cub
inaccuracies
deserving
delaney
descent
##emp
tenus
##aid
##ific
##iter
##dio
##hler
##war
wilk
unattended
equation
guardrail
misinterpreted
##oto
##uka
coe
vera
chapel
caucasian
cottage
##oso
macon
depository
##oya
##vy
901
1921
siding
luther
jacqueline
##icia
terrace
##ssion
overflow
stud
wcab
fortunate
absolve
visibly
spann
impoundment
cortez
mooted
hacer
##grav
workmanlike
transient
exaggerated
##enger
##cz
permittee
348
tutor
426
herd
colombia
sul
transp
hyatt
subdivided
##now
qdro
619
predictable
326
sciences
desp
##rle
lanier
balio
##ssen
##count
##nel
guer
427
imbalance
miguel
obstante
quantify
situacion
awoke
##mill
kirkland
evading
stains
typicality
##vil
##enko
elmore
pma
duane
refined
##sic
saul
hoist
##fd
paycheck
stacked
535
refile
murderer
##igo
emotions
robles
surveyed
intimately
designing
654
refutes
indict
cun
davies
presupposes
zba
europe
multitude
bradshaw
auxiliary
regret
charleston
509
influences
elector
379
needy
##ily
infrastructure
stearns
rath
##oco
asbestosis
##izz
emily
##ffi
staley
brandt
washed
connolly
batteries
steer
wastewater
mcs
magnetic
homer
wausau
theretofore
interface
##azo
axis
##boy
implant
substitutes
aun
dw
twofold
lessened
##rist
##position
brink
##lag
dcf
basket
simplicity
##uhl
##test
##wd
eich
pillow
##ound
428
condominiums
typographical
barracks
dutch
faithful
##stream
expunged
megan
rockland
primer
cont
maloney
articulo
overbreadth
penndot
alters
nighttime
##rog
537
810
genital
##otta
recurrent
unsatisfied
creature
herniated
451
esto
wilder
enclosure
##tsch
cody
notorious
barlow
undefined
histories
##mul
##ching
nonpublic
gorski
ruptured
##lma
screamed
##hear
##ager
corning
nfl
redeemed
gallo
dd
apparel
bnsf
reapportionment
luciano
carney
italian
limb
townhouse
constructions
slo
##sser
##dar
immoral
disingenuous
collectible
handguns
demise
priced
amusement
devastating
mansfield
duplex
487
corbin
derechos
manipulated
rowland
##ih
dsm
bunk
contravenes
cashing
mcgraw
igual
determinate
poured
elmer
digest
##rad
pressured
strips
smi
hp
hatcher
##000
huge
categorized
misconstrued
intimidated
##kis
ailments
indonesia
promulgat
##iente
yang
reassert
renee
estrada
transmittal
##lley
##tura
434
##anto
hypo
cables
transformed
##release
##ska
factfinding
ejectment
##emia
brotherhood
interact
undo
wholesaler
438
peco
radi
contradictions
##etic
nonstatutory
kn
##enberger
393
keefe
sei
broaden
dl
ruin
poder
##nova
baer
##aging
recoveries
fertilizer
translated
rt
molesting
easter
jasper
presente
matches
##zak
stepdaughter
katrina
hesitation
lerner
kenny
##uh
keeps
##allo
mand
pes
346
vehiculo
emerge
gte
refiled
##gett
##antes
weld
fp
paramedics
grav
doubted
kass
sporadic
hemorrhage
instability
servient
fetal
rossi
talley
rude
463
lew
##cke
kru
censure
atypical
schaefer
signatories
dwyer
beaumont
hewitt
lowering
pollard
##pb
telephones
trick
comparatively
##raw
recycling
struggling
typewritten
consonant
##tzel
emphatically
legislatures
##pat
blo
nel
marriott
nonexistence
giant
earns
photographed
avis
layoffs
constituent
bearings
cautious
pretend
##nondischargeable
refining
propane
##ode
spots
agencia
##enburg
607
##ativa
discriminates
##skey
finishing
consummate
sachs
scoring
bard
cathy
mounting
hom
dai
##bone
##omb
irre
ruffin
elm
waistband
wantonly
##rac
harvesting
##good
exculpate
outlets
378
detaining
utica
exonerated
apportioning
930
##enson
hampered
lacerations
manville
tags
observance
jessie
systematically
adrian
##chin
magnet
358
##gb
incoming
highlight
letterhead
387
diploma
##ross
bondholders
wilderness
mooney
reassessment
##tab
midway
tp
875
rut
stray
sage
floating
groceries
negligible
emancipated
bras
alderman
champ
marco
libre
revived
chill
##eiser
tacit
admonishment
##asse
cda
svp
misconstrue
deliberated
dela
turbine
embodies
guatemala
stacey
##cic
winding
clements
lienholder
intrude
disburse
holman
##yp
birds
saddle
##gli
screwdriver
ias
inure
512
##vant
ober
##elin
604
planner
##tuvo
wor
354
todo
disobedience
herlihy
imprecise
chaplain
stricter
##agan
facebook
806
petersen
kins
curran
garry
##poli
##aul
kidnaping
shade
nickel
##ove
cascade
depressive
persuading
untruthful
accommodated
483
robins
presentations
lil
##tors
listings
taser
joke
arouse
##isch
antisocial
junction
corrigan
denomination
wm
tara
thom
sofa
glick
##hd
ig
##court
extremity
nonrenewal
unwanted
vaccination
millimeter
montoya
thomson
packer
litton
liar
thermal
518
hoping
spear
##erty
enumerates
ucl
buttress
participates
seals
hypnosis
redesign
subrogee
backwards
carelessness
civ
prom
545
whe
blanks
guarded
##dm
develops
cushion
divergent
privy
sherwood
##kamp
##ould
##bic
grantees
yan
hare
graph
tent
unmistakably
vazquez
google
swe
fritz
dream
subtracting
ami
teachings
519
comb
alega
mcnamara
plausibility
swollen
korn
psychosis
374
##pg
welder
das
bron
payoff
liked
##jm
billboard
ingestion
suarez
prosser
kuhn
cooler
tendering
poul
kemper
##oski
extremities
lillian
##aries
##cient
aqui
780
ponce
girard
alston
##uit
##lak
##just
steadfast
workable
pins
hul
whitt
laceration
wetland
657
recognizance
syllabus
undisturbed
lauren
jeopardized
433
##fen
gul
irreparably
subsurface
oven
349
exacting
##acc
movies
irvin
neb
##ald
impound
dura
impulse
cohn
##cis
##avo
##bble
evolution
399
capitalized
inequity
unarmed
##arco
indorsement
libelous
criticisms
##chter
reb
##nti
ppg
vit
wh
spo
alexandria
faculties
influencing
dvd
poisonous
sylvia
midst
kau
runoff
conceptual
exhibiting
nov
##amp
twins
##tson
promisor
cluster
epstein
strikers
habitation
##rez
docs
##riving
##oga
territories
diversified
solemn
uncertainties
##ym
476
olin
aligned
##eder
opera
##ways
514
fuck
bir
##front
corey
impinge
##ece
##crib
marr
springer
sediment
presento
deterred
##nal
##atz
defeating
spar
sibling
schle
432
poli
exonerate
ranked
minimizing
ucmj
radiologist
ayala
grouping
bpa
margins
penney
designates
##lander
##hat
devine
368
523
##aks
pooling
realization
swain
seeds
bva
propensities
recidivist
adaptive
##rito
##ook
##bold
nh
folder
plastics
parentage
547
389
cuyahoga
slurred
gust
##uv
527
legend
titan
coats
recruiting
##ank
menos
recapture
infirmities
soundness
indemnitor
informational
entergy
bza
distortion
cans
790
##gman
tang
##amer
lant
acuerdo
cantrell
blount
marquez
sober
jasen
bene
swim
ots
employes
##tax
expunge
cough
leverage
##llis
cid
excepting
##tivo
untimeliness
tracing
griffis
radius
vie
##ndt
583
lb
clement
chairs
##vr
##trans
484
dormitory
womack
precedence
tatum
readings
skel
##pay
dryer
practica
##uti
gradual
informe
railing
##rit
hail
nol
imagination
triangle
ashland
556
pil
westerly
666
pretense
inventions
gmc
sparse
crump
##tto
seymour
sodium
longshoremen
804
jewell
##eva
discounting
usefulness
traits
seas
1920
italy
freddie
##bow
##dec
clinics
##nde
acme
cock
trait
abet
sword
darlene
dumpster
deen
ree
##301
pagan
##fon
estas
appliance
mta
freeway
brackets
statistically
antique
##lom
subscribed
##ais
536
lange
abundant
scholarship
condemnee
513
kot
apprentice
inexpensive
nullified
##rose
alpa
dispositions
scaffolding
555
dolan
posterior
dodson
##rail
443
mailings
##uba
solicitations
sentry
huber
spark
peel
##nos
630
refinance
translate
norwood
harmonious
manpower
intoxicants
mpc
rumors
ipso
spoon
uncooperative
firrea
mckinley
pollock
##sie
riv
fearful
gerard
##tone
bladder
##most
edmonds
evicted
refugee
##ipa
449
dumped
zen
rale
496
ontario
wai
bour
harvard
pens
fisheries
lindley
agreeable
farr
cerebral
sophistication
sheehan
grim
imaging
knoll
attainment
##oux
speeds
marriages
manifestations
disfavor
##rat
waitress
pediatrician
doll
mv
590
mott
lim
ivan
posit
##anne
429
ow
1200
##cri
binds
659
otto
corresponded
##pal
improvident
probabilities
psychiatry
##db
sandwich
grease
tcpa
##200
##atta
inserting
costello
replacements
##hum
grayson
oec
eden
functioned
contaminants
bushes
dempsey
introductory
reprehensible
podia
quin
saylor
feis
correspondingly
reportedly
##asser
suite
analysts
christy
##bor
tis
novation
cracks
fayette
antenupt
extant
##inal
locke
unload
pollutant
pec
provoke
lud
tardiness
navarro
sheldon
commingling
holster
alignment
corre
fitted
abu
mull
meeks
ramon
gard
##lings
meredith
indemnitee
##proof
kun
peradot
horne
curtailed
571
534
automated
contemnor
carbide
ingested
spiritual
sustainable
baggies
ortho
##rex
##comm
grande
discard
arbitra
reentry
transplant
validated
steep
bales
disagreements
439
##mex
##ically
##stan
cavalier
decreasing
disney
circunstancias
outlaw
sidebar
junio
mara
hindered
distort
scholar
456
murdock
climate
websites
debates
embry
documenting
workday
snell
unde
nationally
neg
467
santana
446
wired
544
easterly
##but
##bility
carver
carjacking
embedded
municipio
charities
returnable
concentrations
stain
lemmon
chapters
##ebel
csi
darby
modus
nominated
marino
prod
magee
wer
forums
determinar
##eger
refrained
retaliate
voucher
##hem
escaping
peoria
arbiter
crafted
federalism
inventors
ascribe
mccu
merck
gus
meters
stance
760
designer
fontenot
maricopa
persistence
gladys
scottsdale
nik
requisites
##ume
persist
encroach
immunize
766
trujillo
calf
lenity
##md
635
billboards
hartley
holden
actuality
gp
musical
hurlbut
runway
packed
segregate
pom
##dro
##kus
subterfuge
sunrise
permissibly
reemployment
aerial
sera
culminat
wishing
spelling
marshals
474
milonas
undermining
##market
mcd
passages
mackey
##aldo
##hir
faulted
##iso
groves
bolts
shallow
dice
lowell
##rna
teenage
mcdonough
566
breed
##kie
disclaim
eggs
plum
479
reluctantly
anytime
bang
##prop
extraordinari
crosswalk
##place
papa
piping
##jian
currie
ged
artist
conti
facet
allocations
printout
mira
ole
stepmother
unimproved
federated
##ovic
##burgh
cargill
centum
##ection
bono
dre
ifp
depiction
saudi
alton
rf
wooten
brig
hh
##mey
perceptions
misrepresenting
granddaughter
protruding
sheffield
hollis
448
computerized
erb
tracked
461
##district
backward
expecting
##brand
samuels
roper
nest
breakfast
improprieties
kellogg
worcester
tendencies
hann
socially
faithfully
##iber
impress
deaf
mixing
commutation
confederate
innocuous
submerged
hsbc
fencing
inviting
##extraterritorial
panama
dunbar
taste
alloy
excel
masonry
soldiers
bequests
chuck
mock
krause
coaching
departures
blown
##ij
spreadsheet
kendrick
annoyance
cohabit
nausea
getty
shipyard
369
conoco
subtitle
##iri
soda
experiments
##tio
hamper
coextensive
gruesome
cheese
wilkes
selectively
dredge
437
marble
polar
roz
472
##bd
schwab
##cie
screens
##koff
##ury
stats
dav
##ohan
pickering
hawai
nielsen
bifurcation
governance
burrell
overturning
reacted
reimbursements
albuquerque
universities
accreditation
lett
jp
burst
902
tenderness
helpless
jorge
holy
boomer
perpetuate
landed
enemy
indisputable
underpayment
organs
##uci
##ior
tm
005
##nda
##cit
proclamation
tomorrow
542
dissipated
nee
scientifically
seam
doubtless
ctr
adviser
stiff
embankment
unrepresented
dominated
brazil
ausa
colt
##any
cutoff
##nack
562
browns
dynamic
nad
lhwca
##mming
juiy
expropriation
hostage
##otte
subsidized
summon
shoreline
hag
hm
recruited
kidnap
##isi
bowel
coconspirator
##emer
kes
kodak
nmfs
demar
##metric
612
otras
flare
469
homeland
holcomb
pyramid
tiempo
heavier
##bid
qwest
budgetary
lest
forcefully
pear
645
condon
discerned
1926
gol
static
autonomy
1928
##ggs
salon
divulge
##lim
malcolm
mcknight
scientists
grossman
nursery
meth
misread
wrists
boyce
fares
##voy
depositors
gua
687
hendrix
volunteers
nance
offsetting
sewerage
559
##works
##arra
##enti
694
##aha
garr
##wise
scratch
hannah
##loff
zer
friedmann
emption
keenan
359
muller
offerors
rails
##dling
haya
##bay
repudiate
forgo
491
quad
publica
strenuous
##aci
bitter
donee
olive
anus
subway
##vp
453
mcpherson
psychotherapist
rucker
argumentative
turkey
711
moh
##wn
disconnected
muscles
woodland
barrow
slapped
waco
joanne
blas
discovers
pickett
sizes
regal
affix
reflective
vegetable
lauderdale
drywall
emery
unworthy
gest
harmonize
nord
geneva
##atter
533
resorted
stroud
demonstrable
gentleman
lob
evils
stun
tenet
loren
ably
als
capt
crea
slack
lyle
protesting
##trib
sludge
blush
abrasions
554
annie
seb
clamp
tribunales
524
dew
002
##meter
807
dysfunction
stabilize
roadways
zel
vaughan
##see
seaboard
apex
renewals
gian
cou
hov
og
outlines
presentada
ascertainment
transmitter
##umber
baggie
baron
judg
##fra
moe
admiral
ink
italicized
mcallister
moskowitz
crazy
deterr
##rov
fruitless
##dies
##gent
modem
497
658
crowded
newell
additur
resemblance
fragments
gt
flyer
##iw
custodians
planting
mop
nyse
489
breeding
##lake
rushed
##wal
##lessness
pinnacle
wives
velez
hobson
albania
##oke
talent
##rini
attendants
remarkable
fake
congressman
goodrich
553
##nder
laf
sylvester
unoccupied
ratliff
wyeth
tanker
malley
##read
mcr
doh
##tty
youths
greenville
firsthand
wachtler
tompkins
epi
professed
##zin
rai
fever
##mil
561
kul
reel
forestall
seating
frei
twist
nei
##esh
kilogram
podra
cognizance
ireland
swung
##dam
ric
feeder
policia
492
pest
##hine
administers
##path
blankenship
nightclub
subsistence
interrogating
528
stabilized
strat
assemble
##hic
mpd
constitucional
greenfield
##gest
perc
742
onondaga
leisure
freezing
grievous
mortality
745
parenthood
robb
russian
veniremen
bums
ballistics
##aza
pnc
aggravate
zheng
shouted
##asi
paige
##cro
marian
sincerely
##ulo
##dged
##arth
##mino
sharpe
unprecedented
##fish
abel
hawthorne
cabinets
hires
seasons
reiterat
flooring
marker
##olla
workload
##quet
indemnified
turnpike
clarifies
guthrie
unexpectedly
011
offsets
franco
614
##unque
bakery
cotter
##miss
batch
##pla
systemic
phenomenon
audiotape
tlie
dewitt
733
vivian
delusional
leakage
peticionario
kl
trainer
631
mirrors
atm
cin
fluids
culp
493
mesh
##tical
coffey
kindergarten
monopolize
synthetic
unanticipated
pigott
contestants
pinpoint
defray
##pool
neighborhoods
rationales
birch
mang
gue
rome
scars
crocker
##eria
522
dra
##oka
##fw
543
ib
persuades
##far
joints
condoned
lick
combinations
##cle
gestures
accompanies
diabetic
hercules
curtain
lockhart
adler
almon
bli
##ril
hoa
##tow
misstate
##ugg
helms
intersect
inoperative
davila
nickname
liaison
espoused
gps
utilizes
cheeks
##iling
##lines
yarn
hinge
##vale
soldier
prostitute
malfeasance
salutary
arn
bridgeport
economist
avoidable
impaneled
dishonored
wc
christie
##mura
warranto
lacy
supplant
nec
symptom
rus
curtilage
renovations
typing
ratemaking
ue
840
butter
regained
##ics
##ican
cuba
lina
interpose
ensue
##gins
jill
contreras
responsabilidad
serrano
pueda
tras
oz
defensa
558
hemos
diary
##emi
possessions
blatant
pale
kub
autoridad
flanagan
scoresheet
dewey
avila
mente
trails
revere
click
carpenters
fractional
conforme
mcp
payout
acquiesce
entrust
furthering
decretal
ritchie
babcock
auburn
hap
yar
constituye
##rol
mollen
521
851
neutrality
462
calogero
valerie
haines
eco
outward
##hout
##stown
cmc
terminations
kus
flaherty
terrorism
kinney
anita
professors
gangs
colors
layout
##pol
undeniabl
sau
gl
ehrlich
muhammad
oyster
abode
forceful
spends
portrayed
eager
renter
motivations
fie
hopefully
proprietorship
calvert
humble
##mber
diving
henley
obra
##trust
mayfield
formulas
551
conducive
rudolph
inclination
operable
terrain
##rv
patio
##dahl
##ents
sorna
query
lloyds
asch
peru
mejia
jarvis
taft
adamant
prejudicially
overseeing
##comb
vigil
##emann
##rap
cartridge
obsolescence
##ians
##zek
727
ccs
damn
pep
070
920
staples
457
kai
##coa
##lette
##cate
woo
poultry
fondo
emi
488
miners
825
helmet
464
ratify
novak
921
keen
misapprehension
haz
obstructions
820
uso
wider
##stat
bul
hurd
doss
458
709
rapids
lebanon
telegraph
oi
##ography
##sted
handy
lockett
8216
##wide
disrespect
tripp
conspire
evinces
688
briscoe
comprehension
driscoll
unencumbered
prosequi
outcomes
interviewer
definitional
metz
mony
##flu
lugo
##bis
ibt
sacrifice
holdover
fathers
unbiased
undated
medtronic
debido
morrissey
entertaining
apologized
##struct
##lice
685
hearn
hile
##eron
competently
nps
affiants
kid
##pca
hager
df
mapp
mccain
398
crowe
alamo
retribution
forgotten
mcnally
processor
531
blackstone
josephine
tia
mph
guerra
conductor
peat
##por
transactional
carve
assented
spreading
forge
mccray
hector
##sboro
bracket
refuge
ua
osc
endure
rey
estranged
inoperable
european
appraisement
rcra
controverting
812
deserved
805
454
722
##hak
735
radical
##rix
499
reenter
operandi
##ificacion
keating
figured
lucky
##700
##kos
upstream
condemning
stocking
indicators
##itor
740
venireperson
kavanagh
imputation
marietta
mcn
grouped
grat
osborn
##corn
##ease
confidences
##alu
bienes
##endorf
##erton
ministry
overcrowding
innovation
severability
mcel
faster
##ckel
consol
donated
##piece
sumner
anniversary
juarez
livelihood
menacing
subset
bn
tidal
kitt
dp
personas
##dyne
##105
lax
ey
021
##ail
##eet
suspensive
undetermined
escrito
sincerity
birdsong
##hren
##tributing
##non
assertedly
##though
heartland
clot
652
646
qualitative
slater
##zano
sting
gleason
anomaly
budd
##icki
afl
459
##aca
oneida
kha
korea
horace
##nee
lieb
scientist
witherspoon
tribune
overcoming
edith
resold
drift
travelled
477
sess
##ologic
disrupted
bum
dca
eminently
juris
dram
mischaracterize
occupier
unworkable
cabrera
gallery
inventories
distorted
jas
neely
conserve
bruise
##ozzi
dys
##aux
inflexible
maternity
rojas
632
registering
wantonness
protectable
1913
##band
##eler
occa
##ango
gris
mmi
schreiber
checklist
precept
feld
vend
##dol
helper
538
ayers
rehire
incongruous
infarction
owc
challenger
holley
walle
577
##imp
##anos
regulators
cpi
hoyt
606
nev
##sea
beams
predat
wherefore
##eration
##rob
tms
campaigns
548
linear
evaluator
##yon
subheading
raleigh
download
daddy
##gn
seneca
assignees
##dom
##gur
distill
fau
liner
bab
harbored
fema
violators
bah
deq
despues
dwight
##opoulos
decency
carla
enron
luz
##nner
limp
knowles
##ieh
aspen
dove
modes
uf
weinberg
mdc
anticipating
universe
agosto
juice
pleased
eighteenth
blazer
reentered
##box
humane
715
rip
hooker
kpmg
interactive
##sche
csr
##111
appraise
dressing
tales
terror
##ansky
494
beatrice
emotion
cornerstone
fairchild
thermo
twi
573
predicates
lup
severing
hof
rene
##umbo
dfs
stor
boggs
##tory
continent
irrevocably
slammed
talbot
aquifer
vigor
interconnection
loco
poster
demised
vomiting
motorola
praying
713
cpc
deteriorating
recalculation
strangulation
syndicate
chamberlain
ppm
sandstrom
connotes
sporting
plantation
468
pun
schoen
966
repossess
dissenters
divine
recap
##atic
takeover
inaudible
burks
drastically
##alco
tiff
lighted
shovel
fsia
pour
elliot
obviated
fcra
foundations
disappear
##eer
nhtsa
recurrido
wid
595
enviro
##xa
##bg
cci
sprayed
johnsons
mow
leigh
inexplicably
paradigm
harsher
tardy
housekeeping
decreases
stepping
wrap
##arlo
recessed
saif
651
abruptly
stow
protocols
lep
613
guild
##mination
##ache
bands
tense
imprudent
vulnerability
gia
razonable
shocked
622
dash
bolden
##flex
##medi
anticipates
disavow
910
bust
##rro
dizziness
pacheco
revolving
vu
486
regimen
halls
rehired
blend
fuse
axle
resembles
adjudicator
inefficient
measurable
numerosity
venezuela
metcalf
compositions
topped
maher
dukes
placements
##nj
sender
ev
weir
constitucion
eber
demonstrative
effectuating
articulating
ventura
omega
certifies
##acy
marzo
##cen
strengthened
1923
willow
##outs
ostensible
inchoate
clemons
touchstone
contemptuous
incurs
wrapper
boring
498
893
##miller
coordinat
hairs
##shot
581
##osi
latin
prays
oster
chro
swab
leeway
tat
secretly
##she
accuse
##aiy
##cchi
jailer
##anni
divisible
manchester
recurrida
unexpired
dime
cassette
blackmun
tence
##rial
##trol
##alla
##jf
549
evidentia
redact
##bourne
authorizations
kling
falta
amputation
unskilled
tyrone
shred
nineteenth
hatfield
reconvened
slid
seamen
##vet
##posi
honey
randomly
vial
iac
##equi
collectors
##103
##dley
##azzo
divestiture
hesitant
htsus
indecency
misconception
predominance
sponsorship
mercado
crc
##dischargeability
gull
belton
envision
chattels
cornelius
delicto
shrimp
boilerplate
fremont
patronage
handles
mccord
crushed
stones
farris
watt
3000
##tional
##bear
profound
cch
fuels
temperatures
adhesive
spendthrift
choking
hgn
evinced
##tum
pray
drums
##jj
##lex
edna
hallucinations
catalogue
##ake
pav
752
oth
supporters
##lift
nonresidents
getaway
salle
evince
dob
whirlpool
mckenna
registro
hickey
hollywood
variously
whitley
568
engendered
zimmer
##hos
##acher
interrogations
endured
byron
fop
fic
689
##flow
continual
##rice
##nesthesiologist
volatile
traylor
duval
sine
##enbaum
dereliction
daycare
##ips
##ryl
abuser
posited
bury
leaned
manda
mare
yell
##stine
cumulatively
chal
##ibel
tubing
##rney
uneven
griggs
abnormalities
delusions
erwin
endeavors
veterinarian
swerved
cleaner
##first
pig
##sberg
bowles
##haven
sore
##pie
carved
promisee
gaston
weights
defenders
##plic
arundel
habitability
ji
##iah
thickness
##trac
admonitions
blew
harder
obscured
##kov
allocable
albright
underscored
dover
docks
timm
photocopy
##illas
rcr
##fus
surroundings
pei
wilbur
##rah
##grove
impart
abbreviated
burroughs
odometer
telegram
lacey
koz
reaffirmation
nam
##lau
candle
mum
ferro
##fully
##horst
judi
##rable
fern
##oper
prods
557
cpr
sund
locally
querella
famous
880
brantley
vicki
mobley
predeceased
spaced
anstead
trends
attic
conspicuously
violently
rv
sym
valor
justicia
ponder
romano
rushing
##020
ana
circulator
disappointed
grabbing
logistics
##crest
##tile
lut
##abb
economical
##bbe
deli
conducta
eavesdropping
rainbow
dailey
nervousness
bark
harley
##dent
regan
tum
##eker
declaracion
notificacion
irresponsible
vindication
fueron
tx
cardboard
stmt
cmi
##wear
592
proffers
balkin
expresa
respecto
995
belatedly
circum
lg
siguiente
hate
hai
testigo
remands
gerber
flags
##litz
bigger
624
herald
diaper
fairbanks
015
establece
philips
585
patrolling
##rrell
##qual
##llan
478
##izar
hir
transitional
increment
blockburger
sift
explica
jurado
overdose
testi
disbelieved
layers
oes
##rating
##rst
contestant
830
origins
grape
rupture
uttering
roster
flesh
##fco
understandings
trevino
mccabe
goldsmith
weil
tractors
##put
receivers
doctrina
guar
auth
laurie
coil
##tran
##lein
arbitrariness
decatur
separable
unfinished
servicer
senators
##mitio
incomes
publicized
boulder
kenner
##aban
843
crossings
transformer
exhausting
##esi
##itzer
devil
nonjudicial
escalated
bloodshot
ches
floorboard
walt
##had
626
##keeper
axe
intel
mined
noises
stringer
cullen
rods
nonexempt
overarching
pragmatic
submissible
southerly
##mand
underway
lic
brum
##rem
shocks
resemble
hig
quint
debilitating
kissing
vinyl
##foot
precaution
heel
attest
##oza
##tw
##graf
exceptionally
polled
hens
bain
steiner
skepticism
credibly
sargent
shutdown
joyner
##person
##gp
nil
alba
blowing
broadened
##enfeld
emt
rowan
kunze
berlin
monument
##icio
rau
clergy
##wen
##tca
pickens
averaged
##gor
nunn
prp
straighten
596
nba
spilled
bower
##ecki
exported
downing
##egan
##rain
believable
lehigh
phipps
##enbach
pea
sumaria
connelly
parity
718
legatees
546
pak
2500
discouraging
peremptorily
ziegler
deber
signify
plaster
educate
##holz
arbitrated
registers
rounded
bris
nada
##some
cuales
adjunct
anatomical
fibromyalgia
seriatim
corbett
northerly
##vette
km
sentiment
esther
compu
vouchers
##ograph
##asa
##hb
##tions
##gis
magistrates
registrations
medico
obesity
recognizable
undocumented
wr
britton
peri
kristin
616
bug
tapp
regina
spoil
disburs
##vir
centre
inaccuracy
innovative
radiology
keeper
##rak
##hara
rage
trader
torch
##kl
813
tak
adolescent
galveston
prototype
backseat
pleito
insiders
georgetown
aroused
stur
screws
rd
##pic
jaffe
636
politically
##core
underage
markers
##tado
vann
advocating
licensor
rehnquist
reimbursable
retiring
corroborates
moines
romantic
##rano
##iek
stockton
ecause
hop
servicios
##rance
flra
rla
winch
hopeless
##thers
steak
amc
discs
resen
proscribe
pcs
assemblies
conjectural
limestone
abrogation
simplified
copp
legatee
exaction
##wire
drafter
##uber
twisted
opines
groom
metric
##itu
##ahl
##spa
deprivations
falsification
unimportant
coffman
principled
explorer
efectos
ploy
nep
wrongfulness
oha
##offs
flower
##idge
earner
##yle
cessna
yellowstone
wag
necesario
succeeds
kilo
bounded
uaw
##scope
tolls
sony
815
blamed
regis
##esis
mick
jur
visually
rescinding
businessman
harvester
peg
mf
methadone
coupling
sulfur
refiling
depleted
headache
bequeathed
insures
tus
materialmen
682
oliva
tilt
##nig
gc
dentists
665
569
##lr
##mons
##aki
sutherland
##grad
meager
618
funk
708
faults
gage
##endi
moa
eisen
gle
kurt
flooded
wrench
criterio
groin
mortgagees
defectively
unreviewable
##script
fam
##gee
##rath
addicted
vick
jett
cres
pursuits
carrie
scuffle
akron
lining
relegated
vinson
mosk
lockwood
brac
haney
dome
fishery
kraus
cuban
##ln
gad
stahl
contraceptive
disciplining
gallegos
misguided
krueger
##mig
caseload
receptionist
##ibe
argu
##sti
##uder
coral
deteriorate
oj
isolate
boul
cummins
salinas
sistema
testimonio
philippines
marrero
waterfront
bergen
augment
shorthand
##nke
##cop
##ppe
##assi
bingham
539
##eke
corresponds
newsletter
bha
telex
publishers
assists
##hole
633
coates
conjunctive
kearney
colbert
homicides
supplementation
huntley
daw
##uan
misused
##izzi
deleterious
schmitt
kirsch
easley
gases
999
debenture
subclasses
stances
##isner
broome
tb
attracted
##atted
##agged
accustomed
escalation
columns
addison
transferable
langley
905
jure
transacted
whitman
##riv
feha
obj
coaches
##lab
##enza
esc
overcharges
raven
emergencies
escalator
godfrey
myocardia
virgil
distributive
hick
naturaleza
oficina
mam
destroys
726
reagan
564
prohibitive
##ete
##dus
overrules
reassign
claire
hurting
predictions
vindictive
edges
averaging
toxicology
convertible
cutler
##vier
lazar
padre
alcoa
alto
##aman
studying
cigar
##cardi
##ullo
##tg
deg
existe
pubic
raul
pretermit
superced
uccja
stool
shoved
##mv
##lz
assures
##leton
##eil
860
##nin
rr
assignable
flame
##mid
redd
phen
endeavored
donahue
espinoza
rubric
ackerman
paramedic
##page
##oro
##hur
##001
chasing
superiority
672
##tak
duda
629
installer
entitlements
importing
procedimientos
interrogate
reversion
instru
bait
prophylactic
aqua
sko
ida
alfa
588
960
##dep
sufficed
scher
segal
buyout
manually
##ike
reexamine
capita
veri
approximation
lorraine
pizzuto
relocating
##fit
expelled
disposiciones
cracked
hysterical
##rud
##amco
startling
##ilia
sheds
retro
anee
ely
##wine
sanctioning
voiding
##ometer
rue
elias
suzanne
codification
tarrant
renunciation
##then
ltv
vascular
noticing
inflame
showup
lenses
professions
gio
journals
buckle
##fund
pend
##here
demolish
cates
cassidy
consecuencia
dutiable
depicts
tortiously
craven
##bil
signaled
dag
##zes
##101
##jur
##kc
docketing
587
##iles
##501
ditches
##owicz
marjorie
scenic
enlistment
spectators
empleado
opi
shouldn
loe
fiancee
strauss
##upp
cort
joann
769
##hf
cei
##fire
ponzi
##tig
caa
seis
prosecu
lucille
reliably
jamison
licht
##rett
shim
resembled
kno
dockets
kaz
##fort
git
##sos
soap
venireman
732
bedrooms
526
perceives
wrecker
hereinbefore
gilliam
fape
canvass
cay
surveying
lesson
stressful
bren
strom
faretta
worsening
charterer
712
hamp
##aldi
582
strictures
fenced
gillis
forthright
phoned
carmel
572
weaker
linden
##jr
##card
labs
blasting
goode
switches
empleados
needlessly
authenticate
##worthy
annette
disposi
curfew
evolving
sedgwick
sweatshirt
camacho
forearm
absenteeism
bowden
cta
##aven
freezer
578
fearing
nun
preventive
domination
abrupt
copia
krist
precursor
unpredictable
chestnut
kidnapped
consignment
chloride
liz
makeup
##uca
recounting
diluted
lear
fullest
performances
demonstrations
mechanically
cod
timetable
##plan
airports
recu
##oul
condo
stub
carlisle
rutledge
jencks
transfusion
apprenticeship
typewriter
gabrielli
dcps
ranks
##mobil
illuminated
##dig
bue
##rop
samson
##erle
wander
tacitly
constituents
cheat
presses
rari
oig
solicito
##bh
##zman
darr
recalls
elevators
renwick
remarkably
precepts
aggressively
##gne
cabo
franc
664
##source
suf
##quir
coker
esco
perpetrate
complement
mcghee
berkeley
commendable
townships
legion
burris
##ater
adjudica
##cil
fifteenth
gis
hyman
acquaintances
supremo
##alk
##eber
exposition
##glia
kickback
blanco
vacations
##enzo
668
##wing
absentia
moser
daylight
567
rang
##coat
alguno
disparaging
westmoreland
clutch
inhalation
ruff
dotson
tau
1401
sneed
eller
1910
deferment
##oph
indulged
morally
fights
zie
rca
sweater
propound
proscribes
##cid
councilman
743
blanton
cardiovascular
daugherty
topeka
ferris
##tified
hagan
598
subcontracted
mazz
supersedes
negron
##lle
xxi
##arn
##mma
##rous
crosses
missoula
nonexclusive
principio
steroid
rotating
momentarily
predisposed
solido
nau
pryor
thurman
griev
##np
647
renewable
683
870
rol
##nam
numero
##yc
hennepin
orthopedist
rican
barfield
creed
mcne
##rrie
##vul
barricade
ricci
bulb
batter
fj
ocupa
##mates
bathtub
catastrophic
halliburton
supposition
npdes
coincidence
bliss
ere
##cell
choked
##wed
stir
##quo
vet
655
ute
hace
rav
##wright
olympic
savannah
pakistan
tenneco
precious
cordova
belmont
roh
coon
##under
picnic
households
writers
blond
##lusion
##ind
lsu
boarded
xvi
925
buzz
obsolete
perfunctory
unwritten
641
fireworks
masks
mcga
obstructive
pesticide
chew
connector
protein
overcharge
xiv
751
tours
##lack
##hea
obedience
scrivener
testimonies
ips
poker
589
disavowed
##riz
hizo
##gun
expressway
calderon
##iana
offends
apache
vastly
cyber
1924
737
jung
sorts
##mento
yielding
snap
jab
maid
bricks
koe
demonstrab
presbyterian
benzene
impressive
interplay
condom
kbr
##chon
##guin
mob
som
##voc
1922
inducements
carton
##fford
quan
clari
##kovich
apelacion
beatings
combustion
dauphin
shouting
ensured
dried
mort
maz
fica
vibration
diminishes
##bird
orchard
confi
shad
##czyk
tobin
cardiologist
drummond
fraser
exportation
distracted
coconspirators
##chlor
watches
lowry
##nate
##avan
disclaimers
lash
714
sbc
##dj
malt
syl
hathaway
ulterior
seguro
consideracion
otorga
politics
sequestered
brod
accessibility
buddy
##member
scanner
##ilo
stakes
sticking
conclu
##witz
injunc
confiscation
reclassified
unrefuted
unverified
stovall
vail
polish
legislator
dilute
pharma
reinforces
brandy
groove
##lain
escobedo
inadequacies
uncontrolled
outgoing
dutchess
1915
fuera
durational
##llen
cec
nom
damian
835
daley
distressed
glean
consolidating
unbeknown
kehoe
1917
instigated
chemistry
bullard
yankee
744
woodall
indoor
bread
kenney
whim
vor
##suit
odors
uri
##pul
sewers
678
hoo
##gri
loitering
martoche
unpleasant
tandem
##aris
shoemaker
634
teen
harvested
tener
lutz
771
winds
activate
##ense
phrasing
puncture
cartwright
confining
nathaniel
toxicologist
mims
kassal
##isd
certificated
tipped
pallet
harrisburg
remoteness
infants
steinberg
##quest
pia
distract
paychecks
vickers
673
pwc
detecting
563
pedal
keel
rink
utterances
stash
pfa
##100
586
##701
##ubin
arroyo
kirkpatrick
noncommercial
reinsurer
thoroughfare
crescent
correspondiente
zenith
quincy
uncompensated
##crim
auctioneer
align
##aran
##spec
692
shortened
phi
pauline
##kon
##mputing
hue
593
mdoc
pullman
##jon
dissipation
indivisible
thanksgiving
unnatural
conscientiously
paulson
writes
679
strikingly
##used
bruised
##uate
obtainable
##owsky
haus
silica
cfs
tough
offerings
ammonia
desperate
thoracic
cotenant
paralysis
braking
galvan
transmissions
drops
pathway
milan
fuji
##retta
cried
574
preparatory
pritchard
rosemary
samaritan
comcast
littlejohn
tci
viewers
backlog
runner
kohl
analog
ecl
##igel
litter
manera
sommer
accent
distributes
##range
comparator
embracing
monarch
interchangeable
##arm
insulin
behaved
notarial
tiger
flies
gecc
##than
776
##myer
bombing
cooks
##evich
shuttle
##eca
pursuan
lado
caracter
malingering
precipitating
unwelcome
layperson
displacement
compile
capped
apelaciones
detainers
royce
loc
##ckler
garment
mahon
piles
##kiewicz
resolver
countless
harr
occidental
magnuson
dickey
depreciated
klu
724
arbor
hank
greenhouse
mitt
waterway
whiting
collects
assaultive
bylaw
rox
delve
hears
blackmon
##rno
##wich
callous
fraternity
pharmacies
sprague
hayward
chores
ld
ethel
##tronics
cftc
recitals
devon
nutrition
##wyn
##glin
bacteria
dominican
unaccompanied
vulcan
administrativo
counteroffer
eastman
defamed
767
fitch
fixes
##tzler
purged
##bron
erecting
preparations
##weight
perils
sped
##power
gha
transacting
faint
hanger
facultad
winchester
pappas
lecture
sosa
817
manhole
levying
tattoo
808
icy
cott
pagar
spraying
harp
annoy
meier
reminder
emerald
patriot
alber
##got
counterparts
003
##nzi
lucy
agnes
fighters
moreland
dishonor
realtors
hagen
raytheon
##sure
khal
##effer
736
811
suma
738
##dick
##fold
mesothelioma
repetitious
texarkana
veniremember
juanita
abdul
##entes
nag
ripped
launched
##rico
ipo
765
parallels
indica
##lig
bic
palo
illuminate
celotex
octubre
middlesex
physiological
lonnie
boudreaux
laughlin
cot
healed
nai
richey
westbrook
promptness
pierson
shortages
##wee
bowie
dive
075
handcuff
nic
melt
generators
servi
gros
departamento
extracurricular
saratoga
transparent
plural
devolve
warsaw
csra
hasten
marcia
uscis
chlor
barclays
doses
optic
##night
commend
dom
591
##long
hauled
leaked
disguise
canton
terroristic
mcad
sandler
mooring
scout
##abil
vigilant
diminishing
##cki
##izable
623
##lish
contumacious
seatbelt
##vill
damp
secretarial
##bauer
holm
syringe
culver
initiatives
025
##mak
graded
1911
db
##cip
manley
ineffectual
solvency
sparingly
plight
biopsy
mugglin
deport
focal
bossier
benign
risky
menace
replead
##vig
marketability
korean
##amo
arab
shaken
prominently
##lj
roberto
roadside
traction
justly
choke
653
##ution
weighty
gait
classifiable
resumption
crabtree
negocio
##ania
instrumental
spinelli
geraldine
parenthetically
ascend
tipton
peal
695
##dee
vitiated
norwest
##otic
spasm
countenance
accretion
privies
outdated
steadily
euro
causative
trotter
tek
originate
admis
696
kitchens
gag
oaths
monell
aggregated
hug
fos
mea
remedio
additive
reclaim
tinker
##td
##izacion
##stal
##imon
gunter
surf
zach
tho
##ils
speculated
eagles
moll
parochial
resurrect
woodruff
tuttle
ethnicity
tampered
1909
drawers
augusta
628
reiter
##olt
621
capsules
ameliorate
wisely
marginally
nasa
buc
blower
##sdale
mcmanus
requisition
puckett
somerset
guillory
##ovsky
cea
jeanne
wins
liquids
variant
coop
enclos
scalp
osi
##sas
reclamacion
peek
summarizes
generates
mohawk
suntrust
generis
##fies
barth
venta
##bf
##hus
##010
healy
recast
##kk
oxide
organizer
##043
ruben
conte
cali
rapp
revisited
594
ned
##110
prayers
bulldozer
crockett
prematurity
reginald
##tina
totalled
##gic
##charge
##bot
kob
loci
cleaners
camaro
brochures
731
slick
readers
baugh
skip
hilliard
magnolia
twentieth
unscheduled
schwarz
snowmobile
beneficio
epic
legis
stripping
pines
rivas
##iko
cupp
helena
prose
materialman
carlo
cg
folks
estan
##pack
entonces
torbert
scarring
pw
##gno
##raz
fool
avon
handrail
intendment
absorbed
ez
##chio
upland
##vision
daytime
ascap
emerging
emphases
kilgore
artifice
symbols
manages
specimens
purity
##fill
platte
##bolt
716
##ewicz
##life
bolstering
##anger
674
handful
757
##lov
bassett
##069
##nette
579
dichotomy
migration
reestablish
trousers
aldermen
darryl
sheep
quince
inexperienced
steen
lobbying
intereses
nonin
kb
reconstructed
uniforms
productions
##miento
##anta
bock
##cut
576
967
secures
669
defiance
dislike
gillette
reclama
##guard
underpinnings
##endo
bcbs
##icu
decent
gutter
##vt
mcginnis
excitement
huntsville
vw
invoiced
##lude
permeate
burner
underscores
gamb
guessing
cham
rumor
flora
presley
lamont
hob
##kind
cooperatives
aggregation
premarital
bugg
pencil
abril
atomic
mallory
jor
valencia
cour
##brough
ceded
##loe
##aglia
mond
greek
redaction
infusion
##onna
##rman
bility
decertification
matsushita
swartz
681
tourist
medio
##chner
##rilla
reus
gratuitously
taco
montes
volition
franz
##eks
deadlock
904
ishee
cultivation
simplify
hipoteca
##tress
transco
greenwich
stella
attaining
antibiotics
unin
intimated
highlands
##hari
eddy
##uen
elucidate
unprepared
compass
jeffries
venirepersons
secretario
upjohn
hitch
covert
##gos
homemaker
precede
##106
babysitter
buckeye
nucleus
regression
eptl
zachary
breitel
desoto
contrario
dower
nab
purcell
##alis
uch
pairs
incite
marcel
coupons
lockout
hispanics
pcf
mcclellan
decidedly
940
retrospectively
grimm
carmichael
irritation
wharton
specious
lutheran
##kal
derivatively
foundry
munson
harness
##para
enero
staple
pcb
##gold
##egre
##511
hotly
liquors
nea
curing
##rack
connotation
magnum
glaring
638
##ecause
finney
sixteenth
bibb
solved
##cad
1916
mega
ricks
forsyth
##barger
kho
waterman
concussion
rebates
shamrock
dyna
preponderates
resorts
##eus
empaneled
aging
meade
##erna
herron
##107
##ww
fellatio
eds
perfecting
##olf
wp
##arge
wrestling
emancipation
gli
demolished
addressee
hca
budgets
dietz
informacion
##ether
tad
##hrc
##abilidad
4123
calculus
exigencies
fanciful
honolulu
junctive
psychotherapy
remittance
iqbal
corvette
fondling
kh
trahan
reactor
levies
eiber
747
##029
dole
662
quart
kickbacks
##ption
retract
##pit
eviscerate
caribbean
humanitarian
martuscello
schenectady
mckinnon
pneumonia
morphine
kelsey
terrible
enrique
methodologies
reinforce
chil
fiat
rearing
nerves
screened
##151
##scription
piling
judica
##nac
empanel
fag
policymaker
741
enca
diciembre
inseparable
velasquez
luxury
misinformation
jeffery
belcher
aguirre
vials
attends
glu
knit
repeats
1901
campos
reassess
qual
##throp
subtract
secretaria
innuendo
copertino
stairwell
observable
predictability
jin
richland
silo
convene
chop
##lang
spaulding
tournament
holbrook
##601
##stadt
##109
pinch
pumped
arrives
beans
liquidity
944
espa
##tain
retreated
manifesting
##plex
spells
factored
sacks
ncr
pcha
migraine
eluding
corrosion
brittany
longshoreman
parlor
sock
693
pits
##walk
sundays
artists
903
drunken
##noff
breathe
mentor
spontaneously
784
##home
bundles
2315
721
mcclendon
archie
saber
kei
absurdity
##hawk
dearth
661
transformation
hind
disseminate
vine
bribes
alternating
deloitte
unjustifiably
audible
northeastern
bernice
concepto
fists
ubs
coo
therapists
764
serb
##rion
songs
vern
##cdc
821
greens
677
embassy
jealous
revival
cadle
admittance
huang
keeton
cahill
plummer
rezoned
##bio
##ader
##ccc
morale
obli
ncp
reli
redressed
alleg
tca
##ells
##hsa
hl
elkins
payees
doubled
obligors
resultado
informa
excavating
exoneration
rourke
ginsburg
flavor
exploded
071
appurtenances
naf
plra
profiles
kurtz
##wb
stip
##iero
plenty
uranium
aftermath
drowning
pelvic
tolbert
knott
banned
swat
averr
segundo
scratches
unen
forgot
##iac
##emco
lagoon
##was
defrauding
rector
hunters
sociedad
verifiable
hurry
exclu
723
grate
leyes
cake
compares
bagley
faust
grad
barren
##uous
conde
671
zinc
examina
lineups
pistols
troop
rationality
##eis
761
bfi
##moto
##jet
abolition
stinson
procesal
peerless
785
##gna
pant
tentatively
bai
hoch
corley
paz
tw
##def
plats
##roth
597
monoxide
schizophrenic
syracuse
cardenas
hashish
##andra
southland
##wm
##cano
wisner
weeds
975
rapist
##013
itemization
talks
processors
plank
obligat
erro
intangibles
progressively
##liff
psychologically
pera
drawee
escritura
nuevo
profanity
febrero
mortgagors
##sub
##ej
1919
tune
pouch
retriev
895
cie
argo
soils
branded
embark
##bush
presuming
prestige
snider
patentability
gaap
697
##tero
794
663
pulp
##cola
esi
756
escapes
balls
090
rama
prevalent
administracion
revoca
tain
unt
nigger
milford
attestation
sinus
serv
democrat
clem
rains
boll
spasms
##shell
637
veterinar
wharf
preparer
defunct
rafael
eleanor
chappell
ricardo
dashboard
##801
##hib
hock
denny
donors
dix
##ambo
912
##ody
inquest
pact
bier
davison
jos
boil
dealerships
brooke
bequeath
charters
awkward
cavanaugh
exploratory
upbringing
audrey
lavender
tomlinson
##eja
791
sfc
jug
raj
mons
paintings
##abi
777
717
assumpsit
belligerent
unbridled
posicion
temptation
##will
abridged
workshop
##mdash
dab
stephan
##vino
sinking
forging
##mple
##made
coun
686
squire
coated
##claim
vindicated
artistic
patrono
##vitz
##fur
julius
undress
koenig
ozark
chassis
demurred
hinkle
vanguard
##tate
armour
hunch
shear
kovac
mund
hecht
##dice
intermittently
##trop
wasted
woody
civilized
childers
643
lorenzo
africa
exploring
extenuating
festival
propelled
substation
##hom
slim
molding
sacred
ccp
literar
spurious
nylon
interpretative
disguised
##get
##lino
644
aiken
hesitated
dickens
caruso
divers
duplicated
##dden
dyke
wcc
enlighten
utiliz
smuggle
kron
swine
accessing
powered
centennial
nonviolent
umpire
yvonne
zhang
guam
knob
dentistry
ponds
##white
parra
##step
wagering
wester
policymaking
tempered
poi
walks
##ower
cory
feasors
infections
travels
vain
objeto
thunderbird
ritual
menard
dau
chatham
deduced
carnival
riders
exposures
exploited
breaker
grooming
##scher
trainee
formulations
impanel
subcontracting
increments
hedrick
ecclesiastical
insurmountable
noncompetition
peninsula
herndon
seminal
minivan
##blott
whatley
bethel
##102
bins
890
broadcasts
inaccurately
prejudic
remedying
684
##azi
criminalize
conceptually
joiner
unintentionally
halted
865
autoriza
755
pik
##cino
traces
dissuade
strains
unquestioned
favoritism
746
coma
blindness
terre
epps
stained
ahmed
profesional
##ifica
##amine
badger
##crc
facets
danielle
dimensional
639
734
gong
bott
barre
reproduce
##olino
dioxide
psychotropic
ridicule
annotation
foy
cowart
haywood
rainey
packs
denotes
kost
conserv
##ulli
installations
tick
lough
gulott
##sac
masked
neo
inequality
safekeeping
deployment
strangled
embezzled
auger
mcneal
##reau
772
refill
##nker
anglo
initiates
propio
enti
bathing
fans
kits
tjhe
alden
##riel
apposite
predicament
stupid
sponge
pronounce
##zner
colvin
##lles
##terrelationship
##aim
##hap
aides
##js
crib
beeper
##027
demandado
wasteful
accu
centralized
##neck
grange
funcion
traveler
pli
gobierno
precarious
walgreen
grandchild
resistant
redmond
##lou
embarrassed
mitch
evanston
wrecked
##rella
shelley
##vm
bres
listener
cranes
##lh
cmt
feca
disturbances
ballett
entanglement
precautionary
bookstore
buoy
swayed
repre
diverting
parens
referees
interrogator
648
kg
monitors
rebuild
physi
bca
wb
990
disposicion
manipulative
rpapl
tampoco
inhabited
citicorp
headnote
gratification
tai
volvo
adjudge
sieg
jess
berth
connors
jud
##oj
##moor
shackles
adheres
baez
rae
acevedo
headquartered
hierarchy
ultrasound
unexhausted
trimble
##ificar
leaflet
durr
##mendatory
##onda
xix
tracey
sewell
nominees
coles
##wag
pooled
signer
introduces
##teri
behave
abnormally
##saw
emil
tipo
dexter
milligrams
proficiency
unconnected
prescott
rejoin
expands
kmart
##kman
airman
##ujo
northrop
##053
noticeable
##river
##cini
complicate
affd
##rub
##kirk
hpd
cys
burge
##rip
devolutive
radioactive
transcend
communist
arrington
album
protestations
##telli
##rot
##iq
cramer
fiore
treas
complexities
wedge
719
kok
##vera
benn
##rmc
##mia
dike
tenets
yon
citizenry
commute
##chak
##wy
garnish
##usch
crs
##400
pall
deceitful
deben
hematoma
relapse
ralston
##112
##uvier
pepsi
cartridges
980
edmond
trespassers
badges
pads
enumerate
blackout
falk
ceilings
##mart
##jas
cary
outcry
pendleton
bechtel
dobbs
scrupulously
cade
trio
katie
motorcycles
roberta
831
cantu
criticize
nsp
##holm
rifles
##039
948
##hay
##mindful
##encies
1898
##arla
endless
arithmetic
membrane
refrigeration
youngblood
dubois
wendell
reoffend
stimulate
supportable
##done
delineat
raz
cfa
garb
##ivi
ria
##acci
pcc
##loy
nonde
skiing
endo
##yler
corporacion
lorenz
nueva
patriae
samsung
infinite
inventoried
apollo
reformatory
learns
hypnotic
tendon
##stitutionalized
aborted
carrillo
augmented
##ild
642
pierced
##cutt
782
oca
cosa
pager
kad
fid
reconven
shack
eileen
irreversible
naacp
pslra
structuring
vulgar
ancestor
853
secretaries
breyer
milling
recant
jobsite
inferentially
crab
protestants
lm
881
kopp
ipi
pow
foss
jun
peanut
stenographic
doherty
osteopath
brewster
rooney
##kr
skirt
845
differentiation
delineation
delores
workweek
reef
dugan
tenement
smoker
orcp
shaver
##mco
equalize
carley
##gf
surfaced
jake
fond
traders
answerable
fresno
lumbermens
justiciability
sgroi
desertion
dunham
##tac
dorado
recharge
##wt
cohala
##trip
lbs
##roff
delivers
hinged
camping
##shire
gent
incision
grover
absolved
drains
jailhouse
rigor
##dw
twisting
pets
wilma
649
crafts
otc
myron
catterson
inadmissibility
prentice
unreliability
endorsing
panhandle
impunity
lansing
conspiratorial
##hua
discipl
##303
##gation
##gw
tif
domino
##call
##road
rho
cloak
settles
shelves
hoskins
kimbrough
detrimentally
disparagement
lujan
hawley
xv
embarrassing
contravened
cutpa
##elia
erase
crisp
marx
ola
1905
877
madrid
pollack
timmons
panties
pariente
shawnee
abducted
sensory
ek
elrod
##oscopy
ih
ppa
kenne
siguientes
bondsman
footprints
swinging
dominic
##iat
prenuptial
eradicate
staircase
taiwan
plethor
ether
##hca
saxon
cronin
kem
mcneill
spike
##hul
unex
exams
tightly
intervener
commonsense
huggins
fir
##icular
actuacion
biggs
deployed
hubert
easton
worthington
##etion
##iller
vaguely
hindering
graphics
conveniently
teas
flange
##bet
smf
conten
762
alameda
bituminous
mcqueen
twombly
demographic
colleen
##anski
##300
diverge
818
coupon
commonplace
captive
blu
rial
##boe
mergers
faye
semantic
intrusions
924
engender
dope
##rta
afecta
legislativa
adair
##mere
mullin
##mme
814
nails
##rall
##bles
regulator
##lina
004
cleary
planes
conditioner
instantaneous
adversaries
zapata
863
caprice
racist
##tario
lovell
touches
tears
moderately
morality
809
surround
departs
##ark
mound
mona
051
camps
respon
contributor
##deau
bolin
leland
lipp
genuineness
extort
absorption
attribution
lubbock
polaroid
cypress
regency
safeguarding
airborne
bynum
castille
dum
##linski
alicia
polls
harmonized
bifurcate
whis
descending
joey
wiretaps
puesto
servers
schla
suspecting
gunderson
tragedy
geiger
cath
deflect
strive
darden
tarp
##050
trapped
contextual
##ehler
roa
stalled
dune
queda
mist
##rab
zy
bertha
exertional
posey
584
##bos
advert
founders
beforehand
enlist
nego
abdicate
dwayne
ochoa
mccormack
intencion
ironically
##enberry
collisions
afoot
punching
proportionately
914
newborn
##bly
seminars
dwell
osm
selfish
della
golding
ery
disconnect
fren
citi
vac
sapp
amorphous
brevity
corcoran
mccollum
nonperformance
barbour
charlene
distrust
lessons
overlay
tiered
##hsaa
##yk
##mir
loudly
folded
676
dull
728
infrequent
tearing
wren
##bul
recalculate
##hil
quill
fraught
hargrave
limousine
henceforth
smear
fhwa
empted
vida
##lurry
##rowski
undis
kate
##heart
##anee
merri
##croft
spit
##combe
1918
estados
collegiate
democracy
fhlbb
mitsubishi
removability
requiere
##ssing
hockey
##lease
dozens
entice
taller
##holders
##gul
bestow
strengths
##izado
##tke
hammon
mma
pima
carpeting
##essler
evoke
impulsive
mccauley
paramour
rasmussen
solitary
stipulating
perdue
concentrating
bexar
caesar
stefan
##tinger
##014
##115
confessing
huck
subro
##uted
berm
855
furtive
ogle
guarding
athletes
##hg
041
presentar
higginbotham
resembling
skeptical
unbelievable
villanueva
844
sperry
kerry
switzerland
remington
revenge
titus
1001
##iar
liga
witkin
longest
granger
irc
researched
eason
##thy
facil
gunther
##haracterizations
hib
injecting
magna
suck
rabbi
geographically
pharmacists
shame
discrecion
mcgregor
translator
velocity
stubbs
criticizing
##asha
pivot
jude
prorated
##illion
##camp
##gill
##ein
788
nigeria
voc
##iani
benedict
audubon
edited
jolly
slave
banning
parishes
dumas
llama
documentos
elusive
merchantable
##spire
corona
taub
plas
electrode
bystanders
##cover
allotments
787
overstate
swann
##vine
tailor
##umi
comun
attests
evidential
amplified
wabash
transitory
hankins
johnstone
##track
1914
##jl
hillside
##rene
##bol
seminar
projectile
needles
substantiality
schiff
solis
##discrimination
hartz
##izo
humana
mcwilliams
metaphysical
refuting
walnut
aldridge
peacock
rizzo
jimmie
##nl
laintiff
fad
durable
overpass
mcgu
implants
wf
##break
peticion
compounding
shit
699
gina
mero
accuses
peb
defalcation
infectious
manzanet
stenographer
chelsea
tdcj
enjoying
breaux
ejected
trenton
gaze
laird
terminos
housekeeper
mccomb
agente
selects
##aska
##bili
evaluates
stoner
administra
cork
paine
carelessly
998
##ione
##hre
hark
cora
deeper
sanderson
claiborne
quigley
mcnair
neff
trent
brutality
langford
nieces
metes
dupree
##date
##arin
##ddle
kep
teenagers
discrediting
brant
okla
venturers
instructors
platted
patentable
frisked
833
motorized
interject
dissipate
reorganize
emanuel
thibodeaux
britain
denominator
digit
spacing
braswell
bleed
quaker
ignited
offeree
bry
##arch
##bright
ladd
kne
wesson
##assa
792
lure
containment
gw
determina
##rite
broderick
fraternal
infestation
monopolization
ymca
yonkers
duggan
spivey
rak
raping
malloy
##abella
caroline
chunk
##iously
embarked
lienor
nied
ratt
lingering
lovett
##097
gayle
peach
##wers
kinder
##117
##comprehensible
lymph
microwave
##yama
bellsouth
penological
sunny
derek
waves
lof
822
asunto
866
wahl
cancell
feres
demandantes
##graph
jailed
propia
appraising
congenital
unclassified
##onis
nombre
turtle
reappointment
kogan
unlock
conven
##063
rockford
josh
##tun
zal
backhoe
bergman
##ffler
##case
doran
##lix
salas
demandada
841
buttons
##lev
westfield
databases
degradation
##004
swamp
readmission
specter
neglecting
nypd
##inc
sinai
belie
referida
827
cardholder
loom
842
substantiat
trusteeship
kis
stakeholder
916
832
garments
treatises
##inton
prem
823
##lw
##ificado
##bw
anonymity
inefficiency
rhoades
samantha
schindler
suficiente
aegis
citrus
worley
mda
ambient
informative
##iche
753
checker
hau
vouching
radiat
uk
iied
advent
compensa
knot
fied
pesticides
confrontations
obeyed
bits
mtc
##038
uniroyal
##pine
##zewski
vickie
dhh
insect
retainage
599
##113
demas
kennel
##arios
filters
recollections
hogs
reinvest
parentis
afflicted
fluctuate
oneself
entrant
hornsby
invasive
misinterpret
digging
rhine
loretta
lucero
fallacy
damon
nonunion
##iola
nephews
915
ous
907
nit
debera
silk
lena
messer
##enga
thorpe
tenable
rohr
nudity
redefine
unexcused
diffuse
chadwick
bottling
crawley
becky
interdiction
discerning
xl
vease
contentious
##llie
buff
zion
flour
akers
emerges
##ivas
stretched
fluctuations
##acious
##acre
headings
##von
031
rubbing
administrativa
mcelroy
pinkerton
messenger
turnage
complementary
warwick
drawback
grinding
rosado
pls
mccle
888
tet
1906
phar
condicion
telecom
bci
nonlawyer
ultimo
soccer
staton
selectmen
erased
loyal
##aves
fulfills
relinquishing
vex
avco
##trix
wellington
socks
surcharges
##uzzi
osh
jag
christians
##lysis
##mw
potato
##cera
accommodating
allergic
hidalgo
soul
nieves
ellington
buena
##lberg
whitten
##tics
begs
lux
witter
rewards
captains
complication
remodel
##pur
finca
keyes
browne
understandingly
##jac
##itation
renal
procedi
flammable
impetus
siemens
unconvinced
mishap
763
alpine
reflex
##nnon
toxicity
##park
induces
##czak
schulz
873
##lem
871
774
functionality
laugh
chef
dhhs
##wel
elite
dba
846
shelly
aspirin
fucking
reconsideracion
schre
cellmate
nim
##304
##tail
##elton
lynd
##erio
##ums
baca
bounty
entrapped
gratuity
mchenry
rebuilt
wjhere
weaving
rehab
mbta
##som
parolees
bubble
lucent
varia
msj
##zard
798
henning
698
poa
##ertz
##ofsky
extras
loot
levitt
##vik
##mur
menu
disaffirm
allegiance
longevity
##vitt
holli
##yi
rawls
##eld
##olin
proce
monta
##ulous
hopp
farc
cote
##zia
horrible
hyundai
ceramic
ejercicio
corral
licenciado
morin
##oda
neumann
##luck
mire
disrespectful
799
draftsman
cautiously
sherri
061
zak
gavin
##elt
escalating
grammatical
yarbrough
scarborough
dism
smiley
748
paragon
##atos
bunker
postmaster
thu
##uld
attire
hough
lucid
861
habe
marcos
violacion
nder
797
##hun
inflammation
jaime
##052
knoxville
panopl
snake
conroy
729
abandons
kissed
divi
##025
lust
##gert
outfit
##ifa
assesses
##hle
clare
ivey
##tx
nl
educat
prenatal
cvs
##eher
rhetorical
importers
umc
##jun
dams
merited
exposes
zipper
stepson
##ulating
emanate
ellos
champagne
frustrating
mcnulty
tercero
gagnon
amenities
sheehy
opining
boswell
diplomatic
ntn
dishonorable
##trial
##vac
funcionario
buckner
lazer
##802
vio
hage
##plant
2255
illuminating
orthodox
provable
unsophisticated
ocwen
natalie
valium
##credit
coils
princeton
wiped
imc
##rand
##stre
cim
pmi
nda
ailment
##arc
kohn
constraint
resigning
profess
##edge
##hio
troubles
##plication
aggression
cireum
correlative
angioli
forbade
targeting
calves
widening
woodson
##neau
chevy
nava
885
##how
inconsistently
subcontracts
828
ripp
expediente
blight
ptd
##mbi
oah
##jack
crenshaw
gilchrist
misnomer
alonzo
posner
jarrett
dowling
markman
reparations
outlay
wield
lub
##lawn
polo
modo
geis
bane
surgi
consultations
felder
disgorge
hightower
symptomatic
soviet
glynn
bessie
undercuts
kni
betts
lover
eroded
linkage
chaos
adventure
distraction
append
1170
##pad
converter
iho
##030
##coast
underpinning
warehouses
aggravators
oust
fmv
victimized
empt
773
interruptions
##302
duplicitous
hollingsworth
intravenous
noviembre
silicosis
taurus
collusive
dooley
##064
##ddington
cnb
givan
deja
downloaded
##onta
estar
rpc
schaffer
##aster
effectual
055
interlock
drained
casinos
ledbetter
potomac
rluipa
hargrove
furman
##fle
experimentation
ladders
blaine
906
wicker
winkler
glue
graff
radiator
dese
pardons
laden
previa
wipe
adjourn
woll
fundamentos
839
826
announcements
bourgeois
overburden
overhaul
ludwig
maureen
##104
feuer
godwin
kras
baylor
apology
aplicable
macy
garfield
hypothetically
tram
bota
##049
tull
##him
crain
943
kris
##094
##pak
pinto
eubanks
grumman
inequities
intestacy
libraries
seminole
emptied
password
985
carnal
hymen
homosexuality
gunfire
##acker
##idio
##311
##250
##ashi
awake
824
doctrinal
##070
australia
##wig
pharmaceuticals
piers
penetrate
retard
politica
colum
usufruct
chattanooga
ethanol
unbecoming
rubbed
includable
ulster
patsy
chico
mildly
ligament
raft
arias
dispo
excised
##ruc
addicts
##cation
##fner
##ffer
iam
jacobsen
crush
908
dpa
##pea
steffen
lieberman
thunder
centro
8540
stitches
scpa
##pass
##arelli
stranded
schro
dora
##riano
739
salter
calculates
rides
basil
##nall
activation
dispuesto
sebastian
understatement
zamora
pinned
entrances
simulated
revel
johnnie
##jor
betting
likeness
rela
##eha
##urgi
##urge
##ised
fiance
jerk
1908
795
felton
halper
archdiocese
benevolent
myelogram
puzzle
sectarian
daisy
timeframe
yahoo
schlo
calder
##sulating
discord
tabor
caddo
941
##space
defy
##hia
galli
##blin
divides
tangential
hutchins
reevaluate
##iya
lillie
##ential
##mun
trabaja
hackett
zhb
extrapolation
##wf
clover
esteem
connects
brin
cpt
mhra
contour
##mbro
##borough
usp
siting
babb
feloniously
##ops
confiscatory
frankfurter
##dow
shafer
glendale
praise
analyzes
garnished
ramada
012
##meister
holtz
##quez
834
zoo
##city
##ingling
##burger
undergraduate
microscopic
lanzinger
walmart
motivo
882
chubb
jeanette
handlers
elgin
##roc
##otto
1902
fb
suture
cbc
photographer
##termination
ila
seccion
##enthal
glas
seria
melanie
aldrich
spiegel
attentive
prossed
##011
metallic
##mund
phraseology
herniation
correa
##onics
##rama
persists
weldon
accusers
implanted
qualitatively
leib
spatt
##bir
##share
lach
749
manic
tcc
barclay
##007
maur
##mission
stover
##word
##akos
errand
##iki
asegurado
equivalency
librarian
nystagmus
piedmont
tiorari
marquette
subscribing
mazda
foregone
##chick
nye
yer
potatoes
artwork
infrequently
undeniable
##rillo
847
cob
suggestiveness
fagan
passions
nuts
streamline
tice
davises
whale
wheeling
##506
vid
quotas
establecido
tuscaloosa
vanderbilt
citigroup
hillsborough
graffeo
invented
waddell
stepparent
loomis
reglas
solidary
##thing
fishermen
marlboro
bussey
prepay
##074
##cj
surrendering
mccon
marvel
meg
starter
amphetamine
reparation
trustor
repro
cinco
resubmit
disapproving
sanctity
seafood
nickerson
renfro
accede
bronco
disobeyed
##urri
pfc
hogue
stationery
##gner
miento
haf
supplementing
085
athletics
augustine
blindly
taa
erica
adamson
secondarily
alberto
teenager
lima
819
exacerbate
##wei
prerogatives
##inelli
avowed
epilepsy
wainwright
dhcr
thayer
aquatic
schafer
##rag
noerr
prefers
usurpation
prehearing
brunson
carport
curley
789
##reen
dishes
sublet
acepta
commuter
##cep
patti
ledge
##ckley
##cv
helpers
resent
bothered
##cik
volk
csp
reevaluation
veronica
empleo
dialysis
ilegal
cambio
harriet
971
dunaway
redding
bonilla
reck
chel
otero
cyclo
degrass
crowder
##313
##hop
cafa
tienen
timeline
cation
guil
dyfs
brazilian
commentaries
decay
cse
promoter
facilitates
cracking
fuld
loosen
palace
barnard
finders
##cken
cesar
cumpli
ccr
##zor
prote
respirator
##litis
retrospect
pilgrim
adelante
hurried
schumacher
puddle
imprint
yeager
imitation
##mec
refinement
objectivity
teva
wolfson
1907
passageway
smyth
##jam
mabel
referido
speer
rollers
creator
cfc
tic
intruders
tyco
twc
incorpora
cbp
tuberculosis
paucity
impeding
javier
daigle
rott
saliva
capias
mein
dare
##ilio
dispossess
dion
whaley
##firm
spun
ruse
gation
786
chins
frighten
clu
armor
hcc
alleviated
781
bicycles
ull
045
darling
disbelief
markewich
nomenclature
sulphur
fingernail
##sens
swenson
resubmitted
covello
hydrogen
giglio
neville
reread
retires
##urance
upright
handcuffing
wha
carta
779
waterhouse
mustache
tern
solving
nullification
infirmary
architecture
##ility
tiles
##pole
formalized
israeli
linger
pointless
unpro
starks
##033
mateo
ningun
adjective
depravity
dozier
argentina
jiang
tidwell
salva
lined
##eros
##storm
##bine
psychopath
huss
oss
gainfully
ocasion
piet
pulley
exporter
aquella
ture
816
contributors
paca
treasure
paths
duffel
radial
##chu
attraction
##plain
billie
circumvented
beckman
mori
##fec
bledsoe
cavanagh
cumbersome
delegating
paradise
semiautomatic
assembling
holliday
gwinnett
jenny
summ
cayman
ivory
##079
tribu
brody
critic
alcoholics
rect
flick
lundy
burnt
risen
smol
edmund
paralegals
descend
drying
##vra
##iec
unseal
molded
dong
##lde
scruggs
##507
estab
kov
fabricating
arlene
mainstream
938
illustrations
##pent
millard
barrera
spills
##ifier
##ellen
pasco
swabs
bumped
##bou
##rh
ciba
fittings
##entras
837
leal
zam
contusion
servicio
dolls
apologize
undertakings
dedicate
876
siempre
##scholastic
swept
bancorp
tahoe
fleeting
deleon
schuster
misinformed
verde
##012
754
churchill
maim
interjected
exemplars
journalist
newsome
hangar
msc
saturdays
munder
ibp
turk
forfeiting
boating
insulting
##agno
##governmental
michele
expuesto
mvfrl
salvatore
sentinel
wiretapping
##gley
spector
iranian
analogize
aspiration
frankel
stiles
flan
callaway
rfra
##tice
##rpa
lineal
oficial
burd
precincts
antipsychotic
contrived
interwoven
renegotiation
ridiculous
unobstructed
vitamin
continuum
##eza
838
aloud
snf
owl
hanley
##108
##igler
colin
tiller
##quar
rudd
technicality
announces
marta
##jp
artful
##405
restructure
transgress
chemotherapy
gottlieb
illumination
sclerosis
trinidad
cantidad
optimal
fernando
posible
dementia
##itaria
finalize
recalculated
polite
cede
marty
injures
##isinterpretation
implead
##dex
censor
brandishing
mcmillin
hitchcock
altitude
abcmr
##zone
##buck
compressed
naive
troutman
southwick
shale
nb
945
layton
1912
wsi
nominally
meses
zealous
rudy
stoop
flames
launder
correlate
##cup
bobo
racks
debruler
gipson
mcdougal
rectangular
stevedoring
ppd
drunkenness
bryson
##entine
mejor
farrar
934
##lash
ethyl
1890
strait
voss
feather
whelan
lakewood
disprov
claus
filler
872
cervantes
compromising
laundromat
nesbitt
unseaworthy
##fee
goetz
##thal
welded
##litt
conversed
trw
ledgers
759
##anu
earle
decir
shorten
##gener
partitioned
identically
dorn
asamblea
mushroom
intimation
tramite
skyline
starboard
ror
##lew
combines
hugo
brannon
fof
cbi
996
##chler
hur
moule
demonstrators
bearer
shay
canady
slu
gat
##glo
aggregating
conocimiento
deregulation
illustrating
longitudinal
##402
##120
subdued
airways
souter
sokol
usurped
923
##tract
shipley
loosely
origination
zim
##amba
diamonds
tally
##zl
cheyenne
evincing
upkeep
villarreal
herbicide
intricate
wilhelm
censorship
cogsa
requisitos
milligan
checkbook
continu
textron
ginger
forestry
transferees
arabia
rectal
gravely
##iglio
##pelling
zell
benitez
deducible
gustafson
incompatibility
jpmorgan
merchandising
provost
redetermine
veredicto
cohort
winslow
guilford
purple
monterey
racetrack
msd
watercraft
houser
##anek
defini
hanks
natives
ginn
pai
portal
alder
##uster
##ivos
hydrocarbons
esca
subsidize
pauper
accuser
##mail
862
remaindermen
dude
prudently
associating
exemplified
undecided
rochelle
modular
echols
quillian
coughlin
brunner
townes
condiciones
tencing
793
##strand
eab
concluy
schell
955
donate
developmentally
rebel
differentiated
touche
plaint
barba
raff
cadet
surveyors
debated
expunction
hesitancy
staggering
devising
escobar
coulter
##root
hra
quitting
grief
falsifying
condemnees
suitcases
brew
abogados
taping
eas
harbors
##wit
pcbs
linder
##lston
esos
smelt
hacia
alcan
proclaim
accosted
afscme
calibration
equivalence
exchanging
inapplicability
cumulation
##woman
dfcs
##wash
sewing
ripen
bestowed
berks
roby
antedat
##oxy
##rina
crushing
stent
shapes
##holt
##nak
##cross
##ringer
##igi
module
adjudg
ome
##mount
arthritic
centerline
##iate
sibley
obliga
fellowship
emitted
modeling
pais
broadcasters
benny
classifies
ferret
css
carole
mash
legg
##serve
petti
missile
nard
nonmembers
classrooms
##chuk
featured
tyr
cjourt
inattention
excavated
viking
presidente
noteholders
##uke
grubbs
seqra
loy
##pier
##023
asarco
bub
##lard
856
kirch
localized
796
celled
robust
##hunt
flush
plo
##ivamente
voto
converts
bergeron
cheap
nicola
##alar
bahamas
myrtle
nondelegable
philosophical
surreply
922
padlock
##kowitz
##uria
970
huron
##hai
kut
##stick
blatantly
##muth
perma
laughing
markup
reissued
bny
hannon
slowing
883
wrongdoers
##nica
generality
impediments
carni
##encio
##fy
yi
squeeze
cma
065
##dak
signaling
molecular
aberration
dolores
rigging
quintana
082
##elco
fairfax
##850
lig
927
distilled
haled
emblem
2317
frontal
##rust
volt
fabrics
pti
##alle
##face
grows
estatuto
maguire
permanence
uninformed
winnebago
simulation
fastened
##lair
querellado
plumber
scholars
tpi
revolve
pouring
829
1203
constrain
##making
852
reimbursing
lesbian
syrup
snitch
litany
pocketbook
bulkhead
dispersed
viction
cov
emitida
##ause
representacion
chas
iris
polen
778
clam
repairman
denote
staffed
954
eakin
outburst
tsc
zin
##851
erode
diagnosing
everywhere
proteccion
lmrda
dragging
padgett
lydia
savoy
shearson
##ppi
splint
suggs
constance
fireplace
observers
rje
surreptitiously
flagged
estelle
croft
992
speedway
006
gratify
campo
holz
specialties
pork
##anian
##tip
schna
##xx
##uet
917
##occa
capozzoli
irretrievably
jockey
mishandling
salisbury
understated
rezone
flagg
##mberg
plaque
##211
##ijo
raining
gree
lakeside
##love
##ritz
poland
gable
bohn
inhibited
erin
cache
909
protestant
989
dir
##liter
conagra
epithet
unscrupulous
calloway
nitrogen
kennard
hobby
routing
darnell
mbe
conklin
proclaimed
##ffel
##utory
radically
##lver
sorting
sedan
spitz
reece
##312
bosch
wallis
##rach
identifier
##wil
##logic
heinz
nih
arrestees
thai
laudable
watercourse
hoh
commotion
whittington
certio
moor
postpon
habitually
fibro
grinder
mera
benefi
ferri
mmc
939
specialize
antibiotic
kom
##ground
annuitant
mathematics
necklace
bootstrap
ibarra
stainless
dobson
robison
naught
proration
854
testate
##holtz
freeport
##ague
comi
boils
sticks
##cies
compensacion
chickens
dann
fitz
licencia
disparage
espinosa
filiation
illegible
ingersoll
recompense
unregulated
reapply
greece
rectum
footwear
ics
packard
1201
interpreters
circumvention
clubhouse
marsha
hla
certifica
783
traversed
disclaiming
solicitar
##ecke
868
textbook
smallwood
##csd
koon
brim
pigg
disincentive
enmienda
lumbosacral
misfortune
pasadena
prosthesis
unbroken
asportation
policing
drexel
niehoff
892
deletions
schli
bracelet
goo
technicalities
858
determinaciones
accomplishes
##aje
bw
ew
loyd
fou
torso
exports
redeeming
plc
##phen
lengthen
pci
memorialize
nonpro
mandel
braden
imaginary
mcmillian
misfeasance
pringle
vogt
logged
proscribing
marlene
##ife
grader
noonan
clemens
meek
##otomy
kath
biop
##alamiento
partido
hedges
hoop
chute
758
##wart
##123
adjoin
aired
bearden
kohler
##stitution
closeness
distraught
mchugh
secluded
langston
unidos
registrants
##093
tlc
headline
##503
##leigh
neces
849
respectful
##bacher
##world
##201
##best
dpr
earmarked
inattentive
lucrative
drowned
populated
libby
mistreated
execu
manageable
eluded
articulates
857
1903
enhances
lightning
exacted
bailor
secreted
thorne
espe
pomp
##uja
peti
chav
expresion
reallocation
merging
campground
rainfall
tulane
handbag
##chie
nopd
bmc
chung
busby
##check
lug
dorm
fighter
cortes
curator
luce
landis
bogus
##utin
mute
tempore
levit
adjusters
1800
malo
anesthetic
circulating
destined
mohammed
photocopies
benoit
appropriating
##114
affront
cuenta
1900
urinate
ballast
maroon
sisk
imparted
minnie
oxy
veal
categorize
oor
dci
vanish
inputs
guill
##pia
advisers
sorrell
tablet
##like
compen
henri
##wca
musc
fisch
antoine
balcony
innumerable
chalmers
##nsettling
forecasts
hatred
placid
constrict
hvac
canister
analogized
saline
patrolmen
laymen
hrc
waterbury
932
##zey
hume
grind
##024
##lty
##representation
##ird
mckin
cardozo
equating
fantasy
gypsum
nonsensical
untrustworthy
extinguishing
percy
pettit
1021
##diction
bsc
##ographic
sadler
modeled
refinanced
ltc
864
frick
malfunctioned
trapp
recruiter
##ride
oem
nsc
lackey
##dora
##051
919
##ebra
appendices
blevins
emphysema
humphries
penetrating
prewitt
sunglasses
tylenol
degrading
hickory
pothole
loeb
interline
simone
##raj
yea
##unto
##train
glenda
traves
degrade
bunn
randle
pyle
rebuilding
##imiento
bmi
thru
tdc
##lets
analytically
custodia
recede
##user
cti
brewing
wah
revolution
culpepper
displeasure
gertrude
receptacle
loophole
1101
oblique
koehler
nah
searle
aplicacion
billfold
combatant
zur
cheaper
##254
hcfa
scratched
salud
reyna
##gil
##versionary
motivate
declara
tipster
criticizes
##lah
yama
##class
##uw
styles
booths
##nf
##602
carts
cyr
reputable
vanessa
nicotine
stereotype
leavitt
unsold
profane
seasonably
blessing
indices
gentile
buford
urinar
windham
revolves
supermarkets
pretended
wealthy
bottomed
918
devisees
towels
##ulla
##401
reconvey
unannounced
terrence
cursing
spartan
dearborn
reenactment
consular
cordero
##rep
inserts
gsk
##034
raines
mayoria
curso
##ried
repealing
monk
##lamic
pallets
boilers
folding
##321
angles
argonaut
lovelace
nonfinal
pseudoephedrine
reappear
amicable
orchestrated
damnum
desestimacion
wakefield
athens
osage
leone
##live
##jb
tiffs
kcc
noncom
cess
patterned
mylan
presen
nsa
008
foote
##dv
tempo
tsi
subparagraphs
abram
prece
antagonism
unintelligible
meehan
remediate
showers
hinson
burford
alexis
dustin
rigidly
##cine
psp
965
lobe
textbooks
kindred
fce
##ifico
judd
heflin
biel
enrich
carte
plantea
klan
overland
humphreys
refreshed
##iba
nyc
childress
pender
merry
relatedness
899
##eski
lull
cust
exemplar
mccul
irma
innocently
subtenant
cuevas
falun
counteract
cfo
propria
##hofer
brill
##220
crowell
hydra
restart
ankles
1868
933
pillar
fictional
graf
##121
malin
##enne
serra
iud
karp
latino
##grass
colliding
dolphin
enzyme
incoherent
optimum
phantom
pomeroy
gifford
telecast
monaco
interdict
836
repl
##iron
remembering
##agin
023
##nds
##quit
gatt
cyst
graduates
thal
7052
feder
ecuador
retraining
reclassify
roebuck
prrb
##felt
beltran
zah
fade
##relli
clearest
##icker
##ubert
curl
irvine
corte
lyles
advertisers
swerve
ries
##rik
champaign
realignment
weyerhaeuser
ausencia
feinberg
roderick
ahora
dense
mde
##cloth
harlow
ozone
##hearing
whip
plasma
rupp
##gist
bala
vcr
devisee
lehr
underscore
##eisler
epp
interpretacion
malfunctioning
007
clarendon
disassembl
kilpatrick
repository
pinellas
migrate
diez
tipping
dairyland
prostitutes
socket
bergan
##130
dorman
contusions
kist
947
##077
##take
precedes
tattoos
##tka
matos
centuries
incinerator
irrebuttable
prearranged
nozzle
ribbon
lawmakers
genitalia
ragland
xviii
identi
linde
##rane
##210
claro
987
potent
926
##hut
lumpkin
##health
##026
waterways
camel
##061
##clo
perpetuities
septiembre
unredacted
critique
tonnage
clausula
milliken
geological
extinguishment
retraction
downgrade
##iam
salaam
thro
diner
##arrest
waite
tamm
##jd
874
lyman
hillman
##cmc
shrink
comparability
negligencia
bldg
economies
stallings
reliant
##ddie
898
camara
askew
indefiniteness
tetra
complexion
bache
coded
casi
imagined
##accio
##icle
paw
tanya
simpler
095
lue
annotated
redhibition
susceptibility
breeze
converge
remitting
bronson
rollover
inflate
witmer
pellets
##gge
menores
motley
substantiates
proud
landrum
clips
##iest
redactions
melinda
sublessee
unhelpful
unofficial
blurred
burdick
substantiation
##ibb
083
appointee
##layer
##bag
laughed
divulged
##andi
lamps
surmised
memorializ
cumplir
vat
##amin
skillful
worldcom
clue
goins
##avy
establecer
abscond
nex
igra
algorithm
brandished
centimeter
discontinuing
untainted
##tore
thurston
uterus
washburn
miscalculation
884
finite
##elter
navigational
roma
kneeling
reim
tep
frequented
duplicates
exec
nightmares
schwa
##hauer
medica
cheri
869
inexperience
##125
##vat
gren
casper
##phil
##rimi
convoluted
dislocation
perpetuity
cryptic
saenz
uresa
bronchitis
troxel
albrecht
morrell
nicol
gatlin
relaxation
cagle
darren
unsealed
##atto
layne
postcon
medida
integra
sabine
##vian
gifted
bv
dirk
##ouche
pellet
moseley
engraft
gasket
gaither
bollinger
pannell
feedback
bridgewater
fnma
ket
surgically
medial
darkness
##urse
##uve
assem
##chia
##tted
##drick
thc
##iglia
rup
skate
##vh
##cliff
cabe
mtd
859
##teau
clash
1040
juridica
fisk
891
hypotheses
sympathize
miracle
miriam
bobbie
iberia
vines
deluca
choate
considerar
9011
##avar
descended
garvin
952
gac
stretching
albertson
##anzo
venturer
##akley
tellers
professionalism
triplett
##076
breen
fai
publishes
bash
stewards
heaters
otter
thur
msp
sizeable
flown
ottawa
tce
irish
powdery
##lena
##scribing
sitter
winkle
auspices
jacques
overcrowded
preconceived
speculating
vienna
lindberg
offspring
ashby
devlin
signifies
##bart
loath
##irse
infuse
xxx
##090
helton
signers
limbs
##ication
kolb
##ghi
bony
carpentry
staggered
grinnell
woeful
intrinsically
purvis
valentino
burnham
tul
hobart
mfa
thy
naka
escrowed
actuary
969
hendrickson
contribu
normas
puff
964
cial
931
hamlin
holdup
913
reunite
monuments
928
1897
##play
accelerating
jurisprudencia
necessaries
rodriquez
saucier
##hausen
aerospace
forgeries
thacker
inimical
wigmore
rotary
arctic
prosper
diehl
##child
##orp
reardon
brit
##rda
886
homosexuals
rocha
##711
manson
##cea
baa
truss
appreciably
imprimatur
intermediaries
malignant
millennium
optimistic
virtud
emmett
traffickers
straddle
divergence
opaque
wrapping
yamaha
moose
omar
businessmen
outage
##tance
gott
volun
##jh
##orized
##scan
mclain
##ccia
eisenberg
grig
gault
##307
mintz
whiteside
respa
investigacion
##ieux
sequester
solvents
asbca
##rette
sass
dictionaries
dutton
guevara
untreated
compiling
microphone
tidewater
rawlings
rectified
dispelled
desmond
##jean
greensboro
stipulates
ctc
crossclaim
donnie
seepage
collide
##ational
rbc
frac
##esch
seward
lsc
profited
##hoo
##kor
936
##hmann
affinity
goddard
guadalupe
illiterate
netherlands
codify
spicer
preschool
fuqua
rally
shattered
dictamen
lifeguard
skf
triad
yoder
varner
landers
hospitality
picker
buie
feig
uniqueness
##022
trainees
##319
barricades
rotor
elastic
chippewa
diarrhea
oxycodone
mccloud
ibew
steamship
spinning
bloomfield
engineered
mudd
recross
babin
bsa
tmi
dac
lol
##alter
878
creditable
boles
idot
malik
##tpa
lunn
hopi
spectator
bui
marlin
nugatory
obstetrician
olympia
paralyzed
paxton
perpendicular
extricate
haskell
winfield
controllers
ramey
##metry
lionel
tpr
prs
matson
oversaw
wilburn
##emente
##ght
kimble
##reich
erc
mahan
homo
precipitate
grubb
superintend
##unit
parliament
arsenal
immature
mccracken
renumbered
vehemently
videotaping
pederson
##isse
forgiveness
grammar
##305
airplanes
hardwick
inflicts
##rue
erik
waved
lateness
kruse
##arri
##rax
singularly
##800
exige
scot
silt
##hie
autumn
caretaking
crutches
reproductive
unfunded
unremarkable
jmol
stubs
comstock
diggs
rosales
vari
colby
absconded
coyne
neatly
carryover
deutsch
blended
eaten
##knecht
##uku
984
minton
##ritt
carlin
kamp
##hw
paraphrase
thornburg
parlance
velazquez
laredo
merriam
provocative
drugstore
chant
##free
harmlessness
vouch
outbursts
pmc
muniz
violet
##oca
thoroughness
resists
garni
utc
eom
pineda
peaceable
##omy
theaters
848
##ective
elemental
demon
##513
chile
adicional
dynamite
manuscript
painstaking
acoustic
##arte
lago
timken
reenacted
boland
961
attackers
fpl
wv
hotline
photography
liter
janis
##brew
nave
printouts
volitional
tuck
braid
ester
relat
gj
noticeably
persuasiveness
dmh
udc
fries
##gat
##sensitive
determinant
perrin
##rtwick
assail
probing
disrepair
osteoarthritis
innkeeper
patdown
litigious
clary
harshness
recordkeeping
karr
##facto
probationers
grado
##fia
dinero
disable
niles
preponderate
mint
##gni
entrega
palma
953
psychic
bale
##issa
fija
circulate
schne
tamara
disseminating
proyecto
distrito
fifra
shulman
seclusion
##hag
alkali
handbill
enlightened
truman
reglamenta
curt
eq
##block
foremen
ennis
grier
indexed
margo
##iol
scouts
sallie
directories
##schel
nominate
##hian
##nec
almendarez
disarray
immunization
autism
whipple
blouse
tinsley
moeller
stiffness
flexion
prohibitory
petra
unconsciousness
tilley
expel
tapia
patty
existencia
derby
959
##hue
colombian
forgoing
##polzin
omb
huh
rit
ministers
ihs
neat
punishes
lv
coercing
crandall
electrocution
pritchett
artisan
cumplimiento
facilitation
harleysville
necesidad
dolares
tempted
brann
reaffirming
kba
weekday
soften
##jay
##acki
bauman
rationalization
mediate
evaded
pmpa
haag
##pres
officio
wca
glassy
##with
immediacy
stamford
tripartite
cohesive
culprit
stormwater
bushels
untruthfulness
alegaciones
middletown
cartage
muddy
956
reseller
predictive
brenner
977
gai
##205
##order
ebay
traditions
shortening
kingsley
##vl
disks
ered
persistently
##tenberg
funnel
lj
##lowski
idem
unknowing
2800
nce
sheath
##rout
amplification
anecdotal
brethren
commissary
interdependent
decertify
perverse
fuchsberg
ecological
roark
substrate
harshly
smother
detachment
metzger
slanderous
transformers
981
nazar
capo
##320
ceta
##cab
ferra
949
##discriminatorily
##villa
wiseman
mize
concluir
##ulu
inaccessible
independiente
mackenzie
minimization
proliferation
prurient
yolanda
atrophy
seismic
underlined
eci
bruner
##cua
distal
1005
boca
##toiy
verna
wink
##offer
##chy
cama
comprehensively
##350
##gado
ipc
##bby
abrasion
##ticipa
dbs
cmp
libertad
fdca
zeigler
##watch
silicone
indorsed
leu
lombard
benham
obviat
896
roch
gord
##056
catv
wheaton
incline
##temp
##cier
brighton
1300
fostered
##chron
##qi
993
##lka
budding
arterial
cylindrical
juridico
montreal
insignia
fasci
slogan
##bian
shaping
chand
bedding
##opathy
bitten
lulled
grin
##uska
##150
##dry
catering
##hh
grower
jody
vocal
jurist
garnett
##042
935
biases
flout
connote
dorchester
exacerbation
expediency
mcmullen
synopsis
cocktail
cormier
neurosis
mobilehome
hj
titulo
##314
impleaded
incurable
investiga
879
medley
statue
dane
misreading
nina
molly
##tima
##anov
homicidal
infamous
institucion
pablo
unprovoked
misdeeds
nebulous
orfinger
helium
patience
horowitz
heirship
selby
slipping
abuts
evitar
cron
referable
momentary
tonya
dichos
##209
muir
##cato
reasserted
chronicle
canceling
chev
kp
unico
fogg
##qc
1871
##231
eid
particip
##util
arnett
unger
arden
##tolo
congested
excursion
warehousing
sorenson
atchison
softball
pathological
epidemiological
dominick
##voicing
internist
chrome
reexamined
vip
russia
whittle
sponsoring
##cox
brice
offence
embarrass
dorr
##hanna
swindle
rotator
##tram
maiden
depreciate
casually
alfonso
bapcpa
frequencies
gymnasium
joliet
manipulating
joaquin
salomon
bermuda
reconoce
lipscomb
garrity
awol
bedrock
templeton
imperil
##eidel
867
##164
gomes
kingston
trav
circled
banging
basf
stair
reschedule
##323
897
##901
dramshop
intelligible
jueces
molecule
reciprocity
willoughby
obrero
dirigi
tiny
fenton
##hier
horas
##eagle
mous
fw
cellar
feces
chilled
denomina
spanned
kang
##dicating
2018
##value
highlighting
##ewski
deacon
##capital
trict
custer
##group
tid
nonpre
aneurysm
claudia
inexplicable
optometrist
simulator
infancy
mckesson
moulton
integrate
abdus
##year
bram
brinkley
bleach
stumbled
allusion
overwhelmed
burgos
##204
rabbit
seitz
chau
lippman
cardio
958
roam
griff
errands
differentiat
889
nonuse
##amon
##135
reposed
mink
extrapolate
mitigators
951
silicon
envisions
arteries
leavenworth
multnomah
perforation
equifax
begged
loyola
communicative
palsy
scrub
emory
disarm
resentment
##mod
bravo
##900
pruett
##161
realizar
fmcc
appointees
##enna
vince
interve
deserted
dependable
airway
cleave
woj
eran
birk
1904
##kai
sabo
vertically
ence
084
cuc
bessemer
expreso
hibernia
bozeman
deposing
obligatory
dawkins
femur
categorization
stonewall
postmarked
worksite
structurally
retracted
alarmed
delusion
stooping
worsen
posse
filip
ouster
raf
cater
politic
eastland
validating
guinn
##owner
organizers
1870
silber
coached
parenthetical
##foreseeably
##ipped
skier
chimney
earthquake
perpetrating
unabridged
paranoia
procurador
aquellos
amenability
kosher
4000
coul
##410
##elke
pico
overcharged
##rsity
ferre
ledo
##vez
2305
nestle
tobias
##kopf
brb
kidder
ritz
balk
wic
greco
spatter
baja
gilmer
incarcerat
outsiders
deduce
geared
abernathy
accelerator
giordano
precipitous
proeedurally
rebuffed
revaluation
underestimate
unimpaired
garantia
quantified
physics
disappears
skating
dietary
mastercard
updates
adhd
egger
cooked
lombardo
schulte
emanated
entender
##rink
alegada
lessening
nutritional
##226
misde
946
unlawfulness
brine
enumerat
muse
baking
rewarded
stuffed
weisberg
chick
orphan
analisis
disastrous
dismantling
kincaid
oportunidad
tallahassee
ginsberg
copulation
brumfield
rainwater
whitmore
joking
gara
##sys
citgo
tious
retrieval
marwick
seventeenth
mohr
coffin
berke
beavers
kristi
rapides
fairview
jeter
##510
pint
joa
michal
##vick
choi
968
servicemen
deviating
vodka
updating
demarcation
##aq
protestors
edelman
cheney
978
kiln
942
boost
verse
##ibert
##name
hhc
zeal
salvo
meticulous
eschew
mariner
compulsive
dizzy
episcopal
reinforcing
triangular
hemphill
olivier
waffle
kooper
subdural
comerica
fayetteville
augmentation
merrick
harbin
seibert
schmitz
tossed
corpse
motu
abramson
976
##merit
souza
##azza
impulses
ncc
texto
yost
##udy
##jen
##andro
##fix
researchers
pbs
amputated
ancestry
nonappealable
untoward
##zinski
disbar
hairston
974
blighted
tully
ppi
##dum
bcc
hurl
clad
##ande
##upa
ironic
##yla
budgeted
thiel
##eiro
rader
##uzzo
expone
requisito
##mier
032
afghanistan
calcium
amnesia
inactivity
peticionaria
cushman
hydrant
lozano
extradited
##dinger
suretyship
riggins
stature
razones
seay
##tick
farber
originator
counterfeiting
##fla
014
bae
worm
##721
##cek
nichol
warehouseman
##071
draining
catching
nike
modifiable
lowndes
hysterectomy
muscular
hubiese
confided
hdc
cablevision
delimit
honorarios
ripley
interplead
ashton
##054
##rata
allred
##stop
lein
daryl
##sorted
programmed
wentworth
stoll
bost
cylinders
brack
983
12022
haiti
transcribe
childbirth
cisneros
sanctuary
unrestrained
amplify
pjlaintiff
avondale
escheat
mockery
unocal
crumb
nigro
fsb
clever
versed
shanks
backfill
elsie
util
pau
1006
##bein
politico
trop
982
baskin
sonny
nagel
csea
teri
##elzer
##enia
grau
aeronautics
attenuation
dispersal
formidable
berkshire
nay
complexes
oswald
tharp
delphi
levinson
dame
sigma
##mk
shave
dictada
monumental
provi
impu
esso
crank
oakes
kale
immuno
##215
dominate
molest
testigos
philippine
clapp
adecuada
advisability
coexist
linguistic
mcarthur
nonfeasance
oppenheimer
recalcitrant
scranton
trilogy
mafia
harrah
suction
##mell
016
breakup
##tani
##ische
hui
amphetamines
##ulos
##gam
##mental
verdi
disobey
landau
##hro
inferable
##gaard
abduct
reeder
##702
sanctionable
involuntariness
landlocked
salvation
feliciano
duvall
rosenbaum
laurence
orchestra
shackled
acceded
1889
imperfection
horner
merrell
##uccio
particle
reverted
miembros
dolly
distributees
ferrara
##789
smallest
archives
coors
##wor
regula
subdue
##pv
##055
bismarck
ordained
postoperative
uncounseled
backdated
intuitive
spiral
spotlight
waldron
rutgers
capps
thrasher
barter
##787
tingling
mms
wilt
interlocking
rusty
cao
cheating
copier
prepa
##grand
##atura
##717
##sexual
##schke
mello
##065
albin
braxton
cuatro
desegregate
eureka
wjhen
discourse
evaporate
aponte
reconveyance
leaphart
spaeth
suisse
bateman
##ended
mcfa
harford
##tered
disobeying
##lsa
lleva
##122
semantics
##mmi
replica
emg
ventil
parse
concomitantly
betray
##coff
haj
##306
picc
utu
kcs
opa
preliminar
##509
compatibility
exorbitant
hacienda
reconciling
refurbish
shingles
stauffer
editing
cursed
oracle
zab
funciones
replicate
tale
##nitz
997
##olographic
##060
dancer
chai
moline
##yck
##kb
wmc
bms
##lut
inferential
xvii
cardamone
evacuation
saturated
searcy
sunflower
unsupportable
valenzuela
evenhanded
gresham
lupiano
gannett
newcomb
yardstick
topography
confirmatory
burkett
whisper
rowley
perpetuated
turf
extracting
##ystic
flushing
##czynski
mtca
grassy
programmer
pesar
originates
##hour
serum
##oko
022
sentiments
##rish
castaneda
coefficient
preprinted
rensselaer
stirpes
thigpen
waivable
aubrey
campsite
nugent
pags
barkett
zhu
monster
cocked
evansville
madoff
cady
trapping
armco
##404
marad
##dorff
lienholders
##unda
dispenser
wohl
demandados
gib
1032
ferrer
prac
bellevue
mabry
rewritten
noxious
planteamiento
ellsworth
emtala
mulligan
taillight
duarte
foolish
fianza
##zzi
##vec
parcial
ambush
misapprehended
macomb
ambos
blanc
slaton
spawned
allentown
zealously
mcclelland
blockage
hipp
identifica
##124
##arella
1892
leah
soybeans
briar
panther
syringes
963
salad
##wak
westwood
gutt
flap
dants
1887
commuting
hempstead
mecklenburg
mittimus
rothschild
stimulation
uccjea
uncontrollable
conversing
nrdc
scooter
whittaker
apelada
spangler
cheatham
predictably
dianne
amortized
solano
misconceived
##evic
##212
##alado
bordered
mowing
##ihan
hauser
materialize
familia
##service
schlu
087
renounce
ign
egypt
##873
dcyf
hydrochloride
jehovah
kauffman
neurology
quarles
dislodge
regrettable
mathias
deportable
1208
hazelwood
##zik
african
937
noncapital
fci
haulers
coyle
maui
gertz
cros
lighthouse
rotate
##anco
##371
##021
singly
errant
##zynski
##502
gilman
circumscribe
rodrigue
anhydrous
celebrezze
dominance
numerator
purdue
tammany
marquis
graffiti
happenstance
bloomington
juridical
##160
phra
##ufi
vouched
##eptic
distinctiveness
williston
mixer
##author
##agna
tmc
##119
ucb
wpa
##quette
epo
nazi
meza
##nconstitutional
schad
chisholm
clandestine
scientology
vigente
[...]
